{
  "version": "1.0",
  "truncation": null,
  "padding": null,
  "added_tokens": [
    {
      "id": 0,
      "content": "<unk>",
      "single_word": false,
      "lstrip": false,
      "rstrip": false,
      "normalized": false,
      "special": true
    }
  ],
  "normalizer": null,
  "pre_tokenizer": {
    "type": "ByteLevel",
    "add_prefix_space": true,
    "trim_offsets": true,
    "use_regex": true
  },
  "post_processor": null,
  "decoder": {
    "type": "ByteLevel",
    "add_prefix_space": true,
    "trim_offsets": true,
    "use_regex": true
  },
  "model": {
    "type": "BPE",
    "dropout": null,
    "unk_token": null,
    "continuing_subword_prefix": null,
    "end_of_word_suffix": null,
    "fuse_unk": false,
    "byte_fallback": false,
    "ignore_merges": false,
    "vocab": {
      "<unk>": 0,
      "!": 1,
      "\"": 2,
      "#": 3,
      "'": 4,
      "(": 5,
      ")": 6,
      "*": 7,
      ",": 8,
      "-": 9,
      ".": 10,
      "/": 11,
      "0": 12,
      "1": 13,
      "2": 14,
      "3": 15,
      "4": 16,
      "5": 17,
      "6": 18,
      "7": 19,
      "8": 20,
      "9": 21,
      ":": 22,
      ";": 23,
      "<": 24,
      "=": 25,
      ">": 26,
      "?": 27,
      "A": 28,
      "B": 29,
      "C": 30,
      "D": 31,
      "E": 32,
      "F": 33,
      "G": 34,
      "H": 35,
      "I": 36,
      "J": 37,
      "K": 38,
      "L": 39,
      "M": 40,
      "N": 41,
      "O": 42,
      "P": 43,
      "Q": 44,
      "R": 45,
      "S": 46,
      "T": 47,
      "U": 48,
      "V": 49,
      "W": 50,
      "X": 51,
      "Y": 52,
      "Z": 53,
      "[": 54,
      "]": 55,
      "_": 56,
      "a": 57,
      "b": 58,
      "c": 59,
      "d": 60,
      "e": 61,
      "f": 62,
      "g": 63,
      "h": 64,
      "i": 65,
      "j": 66,
      "k": 67,
      "l": 68,
      "m": 69,
      "n": 70,
      "o": 71,
      "p": 72,
      "q": 73,
      "r": 74,
      "s": 75,
      "t": 76,
      "u": 77,
      "v": 78,
      "w": 79,
      "x": 80,
      "y": 81,
      "z": 82,
      "{": 83,
      "}": 84,
      "¢": 85,
      "¤": 86,
      "¨": 87,
      "©": 88,
      "ª": 89,
      "«": 90,
      "²": 91,
      "³": 92,
      "¶": 93,
      "¹": 94,
      "»": 95,
      "¼": 96,
      "¿": 97,
      "Â": 98,
      "Ã": 99,
      "â": 100,
      "ï": 101,
      "Ċ": 102,
      "č": 103,
      "Ġ": 104,
      "Ģ": 105,
      "Ħ": 106,
      "ĩ": 107,
      "Ī": 108,
      "ĭ": 109,
      "Ķ": 110,
      "ĸ": 111,
      "ĺ": 112,
      "Ļ": 113,
      "Ľ": 114,
      "ľ": 115,
      "ŀ": 116,
      "Ł": 117,
      "ł": 118,
      "en": 119,
      "ch": 120,
      "er": 121,
      "čĊ": 122,
      "Ġd": 123,
      "ei": 124,
      "ie": 125,
      "Ġs": 126,
      "un": 127,
      "ich": 128,
      "Ġw": 129,
      "Ġa": 130,
      "ein": 131,
      "es": 132,
      "Ġun": 133,
      "te": 134,
      "Ġm": 135,
      "in": 136,
      "Ġg": 137,
      "an": 138,
      "Ã¼": 139,
      "st": 140,
      "Ġund": 141,
      "Ġn": 142,
      "Ġv": 143,
      "Ã¤": 144,
      "ĠĠ": 145,
      "Ġz": 146,
      "gen": 147,
      "Ġdie": 148,
      "Ġh": 149,
      "ĠS": 150,
      "Ġein": 151,
      "ll": 152,
      "Ġb": 153,
      "ĠčĊ": 154,
      "Ġi": 155,
      "Ġzu": 156,
      "as": 157,
      "el": 158,
      "ar": 159,
      "ten": 160,
      "em": 161,
      "ÃŁ": 162,
      "hr": 163,
      "on": 164,
      "ĠG": 165,
      "Ġder": 166,
      "Ġau": 167,
      "or": 168,
      "ir": 169,
      "ĠW": 170,
      "ig": 171,
      "der": 172,
      "Ġer": 173,
      "lich": 174,
      "sch": 175,
      "ĠA": 176,
      "ĠD": 177,
      "Ã¶": 178,
      "Ġf": 179,
      "den": 180,
      "au": 181,
      "it": 182,
      "icht": 183,
      "ĠM": 184,
      "Ġin": 185,
      "ach": 186,
      "ge": 187,
      "ĠE": 188,
      "ĠB": 189,
      "Ġk": 190,
      "Ġich": 191,
      "Ġge": 192,
      "Ġden": 193,
      "de": 194,
      "ter": 195,
      "al": 196,
      "Ġso": 197,
      "ur": 198,
      "Ġsich": 199,
      "ck": 200,
      "ĠF": 201,
      "ĠH": 202,
      "ben": 203,
      "ĠĠĠĠ": 204,
      "ber": 205,
      "Ġl": 206,
      "re": 207,
      "Ġver": 208,
      "Ġnicht": 209,
      "Ġan": 210,
      "Ġsie": 211,
      "at": 212,
      "Ġdas": 213,
      "mm": 214,
      "ĠK": 215,
      "Ġsch": 216,
      "Ġauf": 217,
      "et": 218,
      "Ġda": 219,
      "hn": 220,
      "ĠV": 221,
      "ĠL": 222,
      "ung": 223,
      "ĠT": 224,
      "och": 225,
      "eit": 226,
      "sen": 227,
      "Ġmit": 228,
      "Ġvon": 229,
      "ĠI": 230,
      "eich": 231,
      "Ġes": 232,
      "se": 233,
      "ĠN": 234,
      "ft": 235,
      "Ġwie": 236,
      "ann": 237,
      "Ġsein": 238,
      "Ġist": 239,
      "Ġdem": 240,
      "hl": 241,
      "Ã¼r": 242,
      "Ġwar": 243,
      "Ġwir": 244,
      "um": 245,
      "ĠU": 246,
      "Ġbe": 247,
      "ls": 248,
      "ĠZ": 249,
      "Ġwo": 250,
      "Ġman": 251,
      "ĠP": 252,
      "Ġihr": 253,
      "ĠSch": 254,
      "enn": 255,
      "Ġall": 256,
      "ier": 257,
      "Ġj": 258,
      "ehr": 259,
      "hen": 260,
      "and": 261,
      "ĠR": 262,
      "tr": 263,
      "eu": 264,
      "ern": 265,
      "ag": 266,
      "Ġals": 267,
      "ĠGe": 268,
      "hm": 269,
      "Ġmir": 270,
      "Ã¤n": 271,
      "Ġuns": 272,
      "Ġmich": 273,
      "Ã¼ber": 274,
      "is": 275,
      "Ġdes": 276,
      "ĠUn": 277,
      "esch": 278,
      "be": 279,
      "ĠAu": 280,
      "Ã¼ck": 281,
      "ĠdaÃŁ": 282,
      "Ġo": 283,
      "Ġaus": 284,
      "Ġvor": 285,
      "il": 286,
      "Ġmein": 287,
      "Ġhat": 288,
      "urch": 289,
      "Ġeine": 290,
      "rei": 291,
      "Ã¶n": 292,
      "igen": 293,
      "eil": 294,
      "ĠÃ¼ber": 295,
      "isch": 296,
      "am": 297,
      "ent": 298,
      "ĠĠĠĠĠĠĠĠ": 299,
      "chen": 300,
      "Ġnach": 301,
      "ro": 302,
      "zu": 303,
      "ste": 304,
      "Ġher": 305,
      "iel": 306,
      "Ġha": 307,
      "ff": 308,
      "Ġauch": 309,
      "ĠVer": 310,
      "sten": 311,
      "ĠEr": 312,
      "ut": 313,
      "eg": 314,
      "anz": 315,
      "etz": 316,
      "ind": 317,
      "est": 318,
      "ĠSt": 319,
      "cht": 320,
      "ĠDie": 321,
      "ol": 322,
      "Ġdies": 323,
      "Ġt": 324,
      "Ġum": 325,
      "Ġr": 326,
      "Ġdurch": 327,
      "leich": 328,
      "Ġaber": 329,
      "llen": 330,
      "Ã¼n": 331,
      "mmen": 332,
      "ne": 333,
      "uÃŁ": 334,
      "ĠSie": 335,
      "Ġgew": 336,
      "ick": 337,
      "eben": 338,
      "Ġhin": 339,
      "ien": 340,
      "ĠO": 341,
      "Ġnur": 342,
      "ĠAn": 343,
      "Ġnoch": 344,
      "ĠIch": 345,
      "Ġwas": 346,
      "ahr": 347,
      "Ġbei": 348,
      "he": 349,
      "mmer": 350,
      "ige": 351,
      "ĠJ": 352,
      "Ġent": 353,
      "Ġst": 354,
      "rt": 355,
      "Ġwer": 356,
      "Ġim": 357,
      "agen": 358,
      "acht": 359,
      "Ġihn": 360,
      "pf": 361,
      "her": 362,
      "Ġeinen": 363,
      "nen": 364,
      "gt": 365,
      "ill": 366,
      "Ġdu": 367,
      "Ġwenn": 368,
      "ken": 369,
      "aft": 370,
      "lichen": 371,
      "und": 372,
      "Ã¤t": 373,
      "dern": 374,
      "ĠUnd": 375,
      "ÃŁen": 376,
      "ĠfÃ¼r": 377,
      "ht": 378,
      "pr": 379,
      "bst": 380,
      "Ġlie": 381,
      "ĠEin": 382,
      "Ġ\"": 383,
      "bt": 384,
      "Ġganz": 385,
      "ĠHer": 386,
      "ungen": 387,
      "Ġihm": 388,
      "ort": 389,
      "Ġwieder": 390,
      "aus": 391,
      "keit": 392,
      "ot": 393,
      "che": 394,
      "zen": 395,
      "Ġbes": 396,
      "Ġdenn": 397,
      "Ġdoch": 398,
      "Ġeinem": 399,
      "Ġsel": 400,
      "Ġwohl": 401,
      "--": 402,
      "bl": 403,
      "mal": 404,
      "ang": 405,
      "ĠDer": 406,
      "âĢ": 407,
      "Ġnun": 408,
      "br": 409,
      "tet": 410,
      "Ġsoll": 411,
      "Ġje": 412,
      "hal": 413,
      "ĠFr": 414,
      "Ġhatte": 415,
      "ĠSo": 416,
      "Ġunter": 417,
      "Ġzur": 418,
      "end": 419,
      "wei": 420,
      "Ġeiner": 421,
      "heit": 422,
      "erk": 423,
      "ing": 424,
      "Ġtr": 425,
      "elt": 426,
      "ĠBe": 427,
      "ommen": 428,
      "ĠFre": 429,
      "liche": 430,
      "lei": 431,
      "Ġviel": 432,
      "om": 433,
      "Ġmehr": 434,
      "os": 435,
      "Ġse": 436,
      "us": 437,
      "Ġwird": 438,
      "schen": 439,
      "'s": 440,
      "fen": 441,
      "Ġre": 442,
      "eine": 443,
      "Ġges": 444,
      "Ġgen": 445,
      "lie": 446,
      "Ġsind": 447,
      "Ġalles": 448,
      "bar": 449,
      "Ġwel": 450,
      "Ġfr": 451,
      "Ġselbst": 452,
      "Ġkann": 453,
      "Ġwei": 454,
      "Ġdar": 455,
      "ĠGes": 456,
      "gel": 457,
      "lÃ¼ck": 458,
      "ĠIn": 459,
      "aÃŁ": 460,
      "rie": 461,
      "ĠDas": 462,
      "ĠC": 463,
      "Ġhier": 464,
      "ĠMen": 465,
      "Ġschon": 466,
      "Ġimmer": 467,
      "egen": 468,
      "Ã¤r": 469,
      "Ġab": 470,
      "imm": 471,
      "Ġgro": 472,
      "Ġwerden": 473,
      "Ã¤l": 474,
      "ischen": 475,
      "Ã¼hr": 476,
      "dig": 477,
      "ĠVor": 478,
      "ĠschÃ¶n": 479,
      "ul": 480,
      "ph": 481,
      "Ã¶r": 482,
      "eist": 483,
      "sam": 484,
      "ere": 485,
      "einen": 486,
      "assen": 487,
      "Ã¼hl": 488,
      "etzt": 489,
      "lle": 490,
      "onn": 491,
      "ĠWir": 492,
      "Ġvers": 493,
      "Ġdiese": 494,
      "ĠEs": 495,
      "Ġgel": 496,
      "kt": 497,
      "Ġhabe": 498,
      "Ġsei": 499,
      "Ġhaben": 500,
      "Ġgleich": 501,
      "ust": 502,
      "Ġ_": 503,
      "Ġkl": 504,
      "ĠZeit": 505,
      "schaft": 506,
      "gleich": 507,
      "inn": 508,
      "ĠGr": 509,
      "hne": 510,
      "det": 511,
      "ingen": 512,
      "eln": 513,
      "ab": 514,
      "auf": 515,
      "chte": 516,
      "Ġzum": 517,
      "ser": 518,
      "ger": 519,
      "ĠEn": 520,
      "war": 521,
      "ĠkÃ¶n": 522,
      "nis": 523,
      "Ġwen": 524,
      "angen": 525,
      "ges": 526,
      "eiten": 527,
      "Ġwill": 528,
      "ald": 529,
      "dem": 530,
      "ug": 531,
      "iger": 532,
      "ĠMit": 533,
      "achen": 534,
      "Ġgegen": 535,
      "all": 536,
      "Ġseine": 537,
      "ist": 538,
      "dr": 539,
      "Ġbr": 540,
      "ĠAugen": 541,
      "Ġgesch": 542,
      "alt": 543,
      "af": 544,
      "age": 545,
      "ĠmuÃŁ": 546,
      "lau": 547,
      "blick": 548,
      "Ġkonn": 549,
      "Ġe": 550,
      "Ġsehr": 551,
      "ĠGegen": 552,
      "ĠWas": 553,
      "Ġsol": 554,
      "Ġdieser": 555,
      "ĠĠĠ": 556,
      "Ġohne": 557,
      "._": 558,
      "ĠWie": 559,
      "Ġoder": 560,
      "Ġgef": 561,
      "Ġdich": 562,
      "under": 563,
      "eicht": 564,
      "Ġmeine": 565,
      "ert": 566,
      "Ġnie": 567,
      "ĠAuf": 568,
      "ĠĠĠĠĠĠĠĠĠĠĠĠĠĠĠĠ": 569,
      "ĠMann": 570,
      "ad": 571,
      "Ġson": 572,
      "aum": 573,
      "ffen": 574,
      "Ġihre": 575,
      "Ġjen": 576,
      "ĠLeben": 577,
      "agte": 578,
      "sa": 579,
      "Ġdir": 580,
      "Ġet": 581,
      "oll": 582,
      "Ġgr": 583,
      "eigen": 584,
      "des": 585,
      "Ġnichts": 586,
      "sel": 587,
      "le": 588,
      "ĠGesch": 589,
      "licher": 590,
      "hmen": 591,
      "ater": 592,
      "Ġalle": 593,
      "esen": 594,
      "ĠBl": 595,
      "ĠAl": 596,
      "Ġste": 597,
      "unden": 598,
      "Ġetw": 599,
      "Ġam": 600,
      "ĠmÃ¶": 601,
      "ĠBr": 602,
      "ĠWei": 603,
      "Ġgar": 604,
      "ĠzurÃ¼ck": 605,
      "halten": 606,
      "eig": 607,
      "ĠAr": 608,
      "Ġger": 609,
      "ell": 610,
      "itt": 611,
      "ÃŁt": 612,
      "ap": 613,
      "uten": 614,
      "Ġbis": 615,
      "Ã¤rt": 616,
      "ĠWelt": 617,
      "ĠâĢ": 618,
      "achte": 619,
      "Ġander": 620,
      "ri": 621,
      "kommen": 622,
      "tern": 623,
      "ĠSe": 624,
      "ĠMenschen": 625,
      "Ã¤lt": 626,
      "âĢľ": 627,
      "uch": 628,
      "inden": 629,
      "ĠgroÃŁ": 630,
      "Ġbesch": 631,
      "ĠPf": 632,
      "unde": 633,
      "ah": 634,
      "igkeit": 635,
      "tel": 636,
      ".\"": 637,
      "ĠHau": 638,
      "Ã¤ch": 639,
      "glich": 640,
      "ĠLie": 641,
      "Ġandern": 642,
      "ers": 643,
      "Ġseiner": 644,
      "ĠâĢŀ": 645,
      "Ġverl": 646,
      "reu": 647,
      "etr": 648,
      "ĠhÃ¶": 649,
      "Ġsehen": 650,
      "Ġkonnte": 651,
      "eiden": 652,
      "auen": 653,
      "ze": 654,
      "ĠNach": 655,
      "Ġp": 656,
      "Ġdr": 657,
      "fe": 658,
      "ĠHand": 659,
      "ner": 660,
      "Ġversch": 661,
      "Ġetwas": 662,
      "ĠCh": 663,
      "ion": 664,
      "omm": 665,
      "Ġneu": 666,
      "Ġgeh": 667,
      "Ġbeg": 668,
      "ĠAus": 669,
      "qu": 670,
      "ander": 671,
      "ĠTr": 672,
      "Ġbald": 673,
      "Ġschw": 674,
      "bei": 675,
      "Ã¼t": 676,
      "Ġwoll": 677,
      "weg": 678,
      "Ġsp": 679,
      "ild": 680,
      "ast": 681,
      "ĠIhr": 682,
      "gend": 683,
      "art": 684,
      "cher": 685,
      "ange": 686,
      "geben": 687,
      "issen": 688,
      "ĠhÃ¤t": 689,
      "ĠMan": 690,
      "Ġseinen": 691,
      "ĠRe": 692,
      "Ġerst": 693,
      "Ġkein": 694,
      "ĠĠĠĠĠĠĠ": 695,
      "ĠZu": 696,
      "pp": 697,
      "Ã¤u": 698,
      "ĠGew": 699,
      "ĠFreund": 700,
      "tt": 701,
      "ĠwÃ¤": 702,
      "ke": 703,
      "Ġbin": 704,
      "Ġho": 705,
      "Ġdiesem": 706,
      "ĠAb": 707,
      "etzte": 708,
      "vor": 709,
      "ief": 710,
      "fahr": 711,
      "orden": 712,
      "sammen": 713,
      "ĠGeb": 714,
      "Ġwaren": 715,
      "Ġsagte": 716,
      "ĠHerr": 717,
      "gesch": 718,
      "unst": 719,
      "ĠDen": 720,
      "Ġja": 721,
      "ische": 722,
      "ider": 723,
      "Ġfort": 724,
      "Ġunser": 725,
      "ches": 726,
      "Ġrecht": 727,
      "og": 728,
      "ĠwÃ¼r": 729,
      "ennen": 730,
      "Ġeines": 731,
      "igt": 732,
      "Ġdiesen": 733,
      "ĠHo": 734,
      "Ġgut": 735,
      "ĠSp": 736,
      "ĠJahr": 737,
      "Ġal": 738,
      "ĠfÃ¼hl": 739,
      "ĠDu": 740,
      "ĠUm": 741,
      "Ġwelche": 742,
      "ĠSchl": 743,
      "Ġzusammen": 744,
      "ĠÃ": 745,
      "pt": 746,
      "Ġle": 747,
      "ĠHerz": 748,
      "Ã¼s": 749,
      "Ã¤ft": 750,
      "llt": 751,
      "ache": 752,
      "wÃ¤rt": 753,
      "eim": 754,
      "Ġmachen": 755,
      "erst": 756,
      "Ġdass": 757,
      "ohn": 758,
      "ĠGel": 759,
      "ĠFl": 760,
      "Ġeinmal": 761,
      "euch": 762,
      "ĠNat": 763,
      "Ġeigen": 764,
      "ĠWenn": 765,
      "Ġdieses": 766,
      "onder": 767,
      "ĠDa": 768,
      "Ġgem": 769,
      "Ġob": 770,
      "Ġwenig": 771,
      "ĠTag": 772,
      "eute": 773,
      "ĠVater": 774,
      "tlich": 775,
      "Ġfrei": 776,
      "Ġverw": 777,
      "gegen": 778,
      "kann": 779,
      "gef": 780,
      "Ġschien": 781,
      "ĠweiÃŁ": 782,
      "zt": 783,
      "ĠNun": 784,
      "iÃŁ": 785,
      "ler": 786,
      "ĠKr": 787,
      "Ġihren": 788,
      "ĠRei": 789,
      "na": 790,
      "Ġsollte": 791,
      "ĠÃ¼": 792,
      "cken": 793,
      "uh": 794,
      "Ġward": 795,
      "anden": 796,
      "Ġeben": 797,
      "orgen": 798,
      "geb": 799,
      "ĠChar": 800,
      "stÃ¤n": 801,
      "Ġhal": 802,
      "ĠAugenblick": 803,
      "Ġvom": 804,
      "Ġber": 805,
      "ĠFel": 806,
      "Ġallein": 807,
      "sp": 808,
      "\",": 809,
      "ĠBes": 810,
      "mit": 811,
      "ard": 812,
      "du": 813,
      "Ġsah": 814,
      "ĠEnt": 815,
      "Ġgenug": 816,
      "ĠStr": 817,
      "Ġkam": 818,
      "Ã¤hr": 819,
      "schl": 820,
      "Ã¶t": 821,
      "kl": 822,
      "lichkeit": 823,
      "so": 824,
      "Ġweil": 825,
      "Ġbef": 826,
      "mann": 827,
      "Ã¤d": 828,
      "Ġindem": 829,
      "ĠAm": 830,
      "Ġmeiner": 831,
      "Ġzwei": 832,
      "ĠglÃ¼ck": 833,
      "Ġallen": 834,
      "we": 835,
      "Ġsagen": 836,
      "ĠwÃ¤re": 837,
      "Ã¤hl": 838,
      "Ã¤um": 839,
      "Ã¶ÃŁ": 840,
      "Ġ(": 841,
      "ĠUnter": 842,
      "ster": 843,
      "eite": 844,
      "agt": 845,
      "ĠOtt": 846,
      "ehen": 847,
      "ieden": 848,
      "ĠgroÃŁen": 849,
      "ckt": 850,
      "ĠkÃ¶nnen": 851,
      "ĠhÃ¤tte": 852,
      "ik": 853,
      "Ġdein": 854,
      "ĠNatur": 855,
      "ĠOttil": 856,
      "ĠGlÃ¼ck": 857,
      "ossen": 858,
      "ucht": 859,
      "unter": 860,
      "Ã¼nst": 861,
      "ott": 862,
      "Ġwur": 863,
      "immer": 864,
      "men": 865,
      "bend": 866,
      "teil": 867,
      "Ġbem": 868,
      "Ġglau": 869,
      "Ġihrer": 870,
      "ĠHaus": 871,
      "Ġwollte": 872,
      "nung": 873,
      "ĠHier": 874,
      "ĠGef": 875,
      "ogen": 876,
      "Ġihnen": 877,
      "Ġem": 878,
      "Ġhei": 879,
      "fern": 880,
      "ank": 881,
      "haft": 882,
      "Ġfre": 883,
      "ĠArt": 884,
      "hin": 885,
      "ute": 886,
      "Ġhervor": 887,
      "Ġkomm": 888,
      "hnen": 889,
      "Ġseinem": 890,
      "Ġjeder": 891,
      "Ġerf": 892,
      "ĠPl": 893,
      "Ġgeb": 894,
      "allen": 895,
      "ĠDoch": 896,
      "ĠGeist": 897,
      "Ġkeine": 898,
      "Ġbesonder": 899,
      "ĠKunst": 900,
      "Ġaller": 901,
      "ieren": 902,
      "Ġeinige": 903,
      "Ġ1": 904,
      "Ã¼nsch": 905,
      "ĠnÃ¤": 906,
      "Ã¤ÃŁ": 907,
      "Ġmeinen": 908,
      "Ġverm": 909,
      "ĠKl": 910,
      "ĠNacht": 911,
      "Ġgern": 912,
      "Ġersch": 913,
      "ehren": 914,
      "lot": 915,
      "Ġverb": 916,
      "ĠGed": 917,
      "Ã¶ll": 918,
      "ahl": 919,
      "eichen": 920,
      "ĠhÃ¶ch": 921,
      "ĠSte": 922,
      "Ġandere": 923,
      "itz": 924,
      "ĠBer": 925,
      "Ġoft": 926,
      "sicht": 927,
      "me": 928,
      "ĠfrÃ¼": 929,
      "ĠCharlot": 930,
      "hÃ¤lt": 931,
      "illen": 932,
      "Ġwe": 933,
      "Ġwunder": 934,
      "wischen": 935,
      "Ġdann": 936,
      "rechen": 937,
      "Ġvoll": 938,
      "ĠMa": 939,
      "gem": 940,
      "ver": 941,
      "eint": 942,
      "ĠlieÃŁ": 943,
      "att": 944,
      "ochen": 945,
      "Ġweiter": 946,
      "ĠGesell": 947,
      "ĠLu": 948,
      "mals": 949,
      "Ġeinz": 950,
      "atz": 951,
      "Ġschl": 952,
      "Ã¤ng": 953,
      "Ã¼ÃŁ": 954,
      "ma": 955,
      "Ġir": 956,
      "Ġsonst": 957,
      "Ġeuch": 958,
      "Ġerw": 959,
      "Ġlassen": 960,
      "Ġspr": 961,
      "ĠgrÃ¶ÃŁ": 962,
      "chten": 963,
      "Ġblei": 964,
      "ĠWeg": 965,
      "fall": 966,
      "Ġhatten": 967,
      "Ġna": 968,
      "gew": 969,
      "ade": 970,
      "anken": 971,
      "ĠEdu": 972,
      "tete": 973,
      "net": 974,
      "ĠAls": 975,
      "Ġfinden": 976,
      "bte": 977,
      "ĠWe": 978,
      "von": 979,
      "adt": 980,
      "ĠWeise": 981,
      "ĠHÃ¶": 982,
      "Ġempf": 983,
      "wÃ¼r": 984,
      "ĠBeg": 985,
      "Ġlei": 986,
      "Ġmeinem": 987,
      "aten": 988,
      "ĠGen": 989,
      "ĠGott": 990,
      "Ġfand": 991,
      "ĠHaupt": 992,
      "dien": 993,
      "ohl": 994,
      "Ġ[": 995,
      "iert": 996,
      "Ã¼cken": 997,
      "ĠOr": 998,
      "ĠGesellschaft": 999,
      "iges": 1000,
      "ĠTeil": 1001,
      "mer": 1002,
      "zÃ¤hl": 1003,
      "Ġbew": 1004,
      "immel": 1005,
      "Ġging": 1006,
      "ĠÃ¤": 1007,
      "gehen": 1008,
      "ande": 1009,
      "aut": 1010,
      "ielt": 1011,
      "Ġlange": 1012,
      "ĠkÃ¶nn": 1013,
      "Ġbesonders": 1014,
      "fte": 1015,
      "Ġbl": 1016,
      "ehmen": 1017,
      "ĠGem": 1018,
      "ĠFÃ¼r": 1019,
      "ĠTage": 1020,
      "ĠSchw": 1021,
      "ĠMon": 1022,
      "achten": 1023,
      "Ġersten": 1024,
      "Ġins": 1025,
      "Ġbel": 1026,
      "amm": 1027,
      "ĠFreu": 1028,
      "zie": 1029,
      "ĠfÃ¼hr": 1030,
      "Ġleicht": 1031,
      "halt": 1032,
      "ĠÃ¼br": 1033,
      "ĠAll": 1034,
      "geg": 1035,
      "ĠVon": 1036,
      "endlich": 1037,
      "egt": 1038,
      "fl": 1039,
      "ĠBei": 1040,
      "ĠZust": 1041,
      "oph": 1042,
      "stand": 1043,
      "ĠÃľ": 1044,
      "bel": 1045,
      "oÃŁ": 1046,
      "uhr": 1047,
      "ichten": 1048,
      "eut": 1049,
      "ĠStadt": 1050,
      "hel": 1051,
      "einander": 1052,
      "Ġjetzt": 1053,
      "liches": 1054,
      "ungs": 1055,
      "aust": 1056,
      "ehm": 1057,
      "ine": 1058,
      "sehen": 1059,
      "ennt": 1060,
      "ĠAuch": 1061,
      "Ġbetr": 1062,
      "ĠMut": 1063,
      "aben": 1064,
      "Ġzie": 1065,
      "ĠMensch": 1066,
      "Ġwahr": 1067,
      "ingt": 1068,
      "iell": 1069,
      "itten": 1070,
      "ĠBetr": 1071,
      "ĠwÃ¼rde": 1072,
      "ess": 1073,
      "ĠhÃ¶r": 1074,
      "ĠlÃ¤": 1075,
      "ielleicht": 1076,
      "Ġmag": 1077,
      "ĠMe": 1078,
      "ĠMein": 1079,
      "ĠBild": 1080,
      "Ġkommen": 1081,
      "Ġsogleich": 1082,
      "eug": 1083,
      "Ġversetzte": 1084,
      "Ġsolchen": 1085,
      "ĠgroÃŁe": 1086,
      "innen": 1087,
      "ĠLand": 1088,
      "ĠPr": 1089,
      "ĠSeite": 1090,
      "dert": 1091,
      "ĠHimmel": 1092,
      "Ġherr": 1093,
      "Ġweit": 1094,
      "ĠmÃ¼s": 1095,
      "hol": 1096,
      "ollen": 1097,
      "ĠEduard": 1098,
      "deuten": 1099,
      "ĠKin": 1100,
      "riff": 1101,
      "id": 1102,
      "Ġzul": 1103,
      "ĠGest": 1104,
      "gr": 1105,
      "gest": 1106,
      "Ġganzen": 1107,
      "Ã¶hn": 1108,
      "Ġgeht": 1109,
      "Ġihrem": 1110,
      "nehmen": 1111,
      "Ġkommt": 1112,
      "Ġfol": 1113,
      "Ġtun": 1114,
      "ehl": 1115,
      "gl": 1116,
      "kr": 1117,
      "Ġkaum": 1118,
      "Ġzuletzt": 1119,
      "Ġsu": 1120,
      "Ġweg": 1121,
      "ĠKind": 1122,
      "aun": 1123,
      "Ġdessen": 1124,
      "nÃ¼": 1125,
      "durch": 1126,
      "Ã¤cht": 1127,
      "Ġsondern": 1128,
      "ĠRom": 1129,
      "Ġganze": 1130,
      "ilhel": 1131,
      "istoph": 1132,
      "Ġwerde": 1133,
      "eister": 1134,
      "fÃ¼hr": 1135,
      "ieben": 1136,
      "doch": 1137,
      "ibt": 1138,
      "Ġendlich": 1139,
      "Ġsieht": 1140,
      "schein": 1141,
      "egenheit": 1142,
      "Ġfreund": 1143,
      "ĠWirt": 1144,
      "ĠglÃ¼cklich": 1145,
      "ĠAber": 1146,
      "Ġentsch": 1147,
      "kannt": 1148,
      "Ã¤dchen": 1149,
      "eles": 1150,
      ".--": 1151,
      "ugen": 1152,
      "Ġwor": 1153,
      "ĠWer": 1154,
      "Ġgeben": 1155,
      "ĠFreunde": 1156,
      "ett": 1157,
      "âĢľ.": 1158,
      "spr": 1159,
      "Ġzwischen": 1160,
      "Ġbest": 1161,
      "ĠJa": 1162,
      "istopheles": 1163,
      "!\"": 1164,
      "ĠRu": 1165,
      "phistopheles": 1166,
      "digen": 1167,
      "ichte": 1168,
      "etzten": 1169,
      "ilhelm": 1170,
      "Ġleben": 1171,
      "heim": 1172,
      "werk": 1173,
      "Ġjedoch": 1174,
      "ĠBlick": 1175,
      "ied": 1176,
      "Ġerg": 1177,
      "hÃ¤ltnis": 1178,
      "ĠLebens": 1179,
      "Ã¶rt": 1180,
      "auer": 1181,
      "mut": 1182,
      "ob": 1183,
      "Ġgewesen": 1184,
      "mehr": 1185,
      "ĠSon": 1186,
      "Ġgehen": 1187,
      "gar": 1188,
      "ĠKo": 1189,
      "ĠmÃ¶chte": 1190,
      "reich": 1191,
      "ass": 1192,
      "amen": 1193,
      ".)": 1194,
      "io": 1195,
      "esten": 1196,
      "ĠSinn": 1197,
      "ĠPers": 1198,
      "Ġrief": 1199,
      "ritt": 1200,
      "Ġerh": 1201,
      "Ġanzu": 1202,
      "mpf": 1203,
      "ĠMÃ¤dchen": 1204,
      "Ġwirk": 1205,
      "bracht": 1206,
      "ĠWasser": 1207,
      "merk": 1208,
      "uck": 1209,
      "enden": 1210,
      "Ġstill": 1211,
      "ĠBrie": 1212,
      "Ġverg": 1213,
      "ĠKÃ¶n": 1214,
      "Ġbeh": 1215,
      "ĠSchÃ¶n": 1216,
      "Me": 1217,
      "ĠWor": 1218,
      "Mephistopheles": 1219,
      "Ġrei": 1220,
      "Ġwider": 1221,
      "alten": 1222,
      "Ġdort": 1223,
      "ĠWilhelm": 1224,
      "Ġlang": 1225,
      "Ġbed": 1226,
      "âĢľ,": 1227,
      "fel": 1228,
      "zogen": 1229,
      "ĠMar": 1230,
      "ĠNicht": 1231,
      "Ġzwar": 1232,
      "ĠBo": 1233,
      "reten": 1234,
      "ĠLe": 1235,
      "etzen": 1236,
      "ĠFrau": 1237,
      "haf": 1238,
      "tan": 1239,
      "Ġern": 1240,
      "ĠGefÃ¼hl": 1241,
      "dann": 1242,
      "ĠAbend": 1243,
      "ĠCharlotte": 1244,
      "Ġirgend": 1245,
      "tem": 1246,
      "Ġgab": 1247,
      "ĠLiebe": 1248,
      "quem": 1249,
      "keiten": 1250,
      "Ġmacht": 1251,
      "Ġange": 1252,
      "ĠJu": 1253,
      "fahren": 1254,
      "dlich": 1255,
      "Ġworden": 1256,
      "Ġvielleicht": 1257,
      "org": 1258,
      "Ġfin": 1259,
      "ĠKap": 1260,
      "ĠNe": 1261,
      "Ġgest": 1262,
      "ĠGer": 1263,
      "Ã¶ff": 1264,
      "Ġruh": 1265,
      "ĠAnt": 1266,
      "ĠnÃ¤her": 1267,
      "este": 1268,
      "denken": 1269,
      "Ġwollen": 1270,
      "ĠSeel": 1271,
      "Ġleb": 1272,
      "aar": 1273,
      "Ġeil": 1274,
      "Ġgetr": 1275,
      "Ġdavon": 1276,
      "ĠTo": 1277,
      "Ġunbe": 1278,
      "aÃŁt": 1279,
      "ĠschÃ¶ne": 1280,
      "Ġguten": 1281,
      "ĠWort": 1282,
      "Ġgesehen": 1283,
      "Ã¼hrt": 1284,
      "ĠHause": 1285,
      "ĠHof": 1286,
      "ant": 1287,
      "Ġkur": 1288,
      "ĠVerw": 1289,
      "ĠHerzen": 1290,
      "Ġsolche": 1291,
      "ĠPfer": 1292,
      "Ġverd": 1293,
      "Ġentgegen": 1294,
      "immt": 1295,
      "Ġsteht": 1296,
      "merksam": 1297,
      "Ġjene": 1298,
      "Ġaufs": 1299,
      "gleichen": 1300,
      "Ã¼l": 1301,
      "ĠGl": 1302,
      "Ġdenken": 1303,
      "Faust": 1304,
      "ausen": 1305,
      "ĠFrauen": 1306,
      "uss": 1307,
      "Ġnieder": 1308,
      "wer": 1309,
      "asse": 1310,
      "ĠEl": 1311,
      "Ġhab": 1312,
      "Ġeiniger": 1313,
      "ehrt": 1314,
      "eigt": 1315,
      "str": 1316,
      "onen": 1317,
      "Ġrein": 1318,
      "Ġed": 1319,
      "glÃ¼ck": 1320,
      "ĠVol": 1321,
      "ĠVerhÃ¤ltnis": 1322,
      "Ġunge": 1323,
      "Ġdenen": 1324,
      "ĠPro": 1325,
      "Ġauszu": 1326,
      "wÃ¤rts": 1327,
      "gang": 1328,
      "Ġjener": 1329,
      "mt": 1330,
      "inne": 1331,
      "Ã¼gel": 1332,
      "itzen": 1333,
      "ĠMÃ¤n": 1334,
      "dessen": 1335,
      "Ġgibt": 1336,
      "Ġscheint": 1337,
      "Ġheraus": 1338,
      "selben": 1339,
      "ĠOttilien": 1340,
      "fer": 1341,
      "ĠwÃ¼nsch": 1342,
      "Ġged": 1343,
      "Ã¤nde": 1344,
      "Ã¤ngt": 1345,
      "ĠwuÃŁ": 1346,
      "Ġheil": 1347,
      "ĠschÃ¶nen": 1348,
      "Ġmachte": 1349,
      "ĠGar": 1350,
      "oren": 1351,
      "ĠBesch": 1352,
      "ĠKa": 1353,
      "Ġaufge": 1354,
      "stens": 1355,
      "Ġhinter": 1356,
      "aden": 1357,
      "ock": 1358,
      "Ġwissen": 1359,
      "ĠDenn": 1360,
      "Ġfl": 1361,
      "ĠDiese": 1362,
      "uld": 1363,
      "uldig": 1364,
      "Ġzugleich": 1365,
      "ĠAlc": 1366,
      "Ġangen": 1367,
      "Ġdamit": 1368,
      "ĠMutter": 1369,
      "zeich": 1370,
      "ĠIhnen": 1371,
      "Ġentfern": 1372,
      "ĠmuÃŁte": 1373,
      "Ġ-": 1374,
      "Ġderen": 1375,
      "Ġbeiden": 1376,
      "Ġalten": 1377,
      "Ġar": 1378,
      "Ġhast": 1379,
      "Ġgewis": 1380,
      "Ġstand": 1381,
      "Ġwurde": 1382,
      "Ġbedeuten": 1383,
      "reiben": 1384,
      "ĠlÃ¤ÃŁt": 1385,
      "unk": 1386,
      "Ã¤ll": 1387,
      "ation": 1388,
      "euer": 1389,
      "Ġlieb": 1390,
      "lieÃŁen": 1391,
      "Ġdarf": 1392,
      "Ġdarauf": 1393,
      "ĠLust": 1394,
      "ĠgewÃ¶hn": 1395,
      "pfl": 1396,
      "ĠkÃ¶nnte": 1397,
      "Ġgute": 1398,
      "itte": 1399,
      "dete": 1400,
      "stehen": 1401,
      "halb": 1402,
      "ĠGegend": 1403,
      "Ġeigentlich": 1404,
      "bild": 1405,
      "ĠerzÃ¤hl": 1406,
      "reff": 1407,
      "Ġwelches": 1408,
      "ĠĠĠĠĠĠĠĠĠĠĠĠĠĠĠĠĠĠĠĠĠĠĠĠ": 1409,
      "nahm": 1410,
      "ĠFreude": 1411,
      "ak": 1412,
      "mand": 1413,
      "Ġdrei": 1414,
      "ĠvÃ¶ll": 1415,
      "ĠZimmer": 1416,
      "ĠVerl": 1417,
      "itter": 1418,
      "ĠKÃ¼nst": 1419,
      "ĠEnde": 1420,
      "ĠOttilie": 1421,
      "Ġwurden": 1422,
      "ack": 1423,
      "Ġstr": 1424,
      "inge": 1425,
      "aler": 1426,
      "Ġunsere": 1427,
      "wart": 1428,
      "rat": 1429,
      "Ġlos": 1430,
      "ĠmÃ¶glich": 1431,
      "eigung": 1432,
      "chem": 1433,
      "Ġreich": 1434,
      "ĠHoff": 1435,
      "ĠÃ¤uÃŁ": 1436,
      "ĠSeele": 1437,
      "Ġuner": 1438,
      "als": 1439,
      "atten": 1440,
      "Ġlieben": 1441,
      "Ġstehen": 1442,
      "Ġfreilich": 1443,
      "ĠFuÃŁ": 1444,
      "Ġseines": 1445,
      "stellen": 1446,
      "ĠWesen": 1447,
      "Ġgemacht": 1448,
      "iff": 1449,
      "ĠVerg": 1450,
      "ĠÃľber": 1451,
      "iz": 1452,
      "Ġmanches": 1453,
      "Ã¼ckt": 1454,
      "Ġgerade": 1455,
      "ĠAlcest": 1456,
      "ieb": 1457,
      "ord": 1458,
      "Ġfest": 1459,
      "Ġfuhr": 1460,
      "Ġkleinen": 1461,
      "ĠhÃ¶chst": 1462,
      "ĠKinder": 1463,
      "Qu": 1464,
      "av": 1465,
      "zÃ¼": 1466,
      "ĠTas": 1467,
      "Ġtief": 1468,
      "Ġgeworden": 1469,
      "Ġjeden": 1470,
      "ĠSoph": 1471,
      "frie": 1472,
      "ren": 1473,
      "ĠSohn": 1474,
      "Ġneue": 1475,
      "ilden": 1476,
      "weise": 1477,
      "Ich": 1478,
      "ehn": 1479,
      "richt": 1480,
      "Ġ2": 1481,
      "ĠwÃ¤r": 1482,
      "Ġbet": 1483,
      "auern": 1484,
      "Ġallgem": 1485,
      "Ġklein": 1486,
      "ĠbeschÃ¤ft": 1487,
      "affen": 1488,
      "wend": 1489,
      "ĠQu": 1490,
      "ichtet": 1491,
      "ĠSpr": 1492,
      "Ġvertr": 1493,
      "Ġallem": 1494,
      "ĠStunden": 1495,
      "Ã¼nft": 1496,
      "nete": 1497,
      "Ġschwer": 1498,
      "Ġhalten": 1499,
      "Ġ--": 1500,
      "ĠLeiden": 1501,
      "ĠStu": 1502,
      "nell": 1503,
      "lieb": 1504,
      "lossen": 1505,
      "Ġunsern": 1506,
      "Ġbesser": 1507,
      "ĠStelle": 1508,
      "falls": 1509,
      "ĠwuÃŁte": 1510,
      "per": 1511,
      "ies": 1512,
      "ĠnÃ¶t": 1513,
      "Ġerk": 1514,
      "Ġkeinen": 1515,
      "Ġherein": 1516,
      "ĠVerb": 1517,
      "wÃ¼rdig": 1518,
      "ĠKÃ¶nig": 1519,
      "ften": 1520,
      "Ġwirklich": 1521,
      "ÃŁer": 1522,
      "ĠWerk": 1523,
      "ĠMorgen": 1524,
      "Ġverz": 1525,
      "ĠKir": 1526,
      "Ġwelcher": 1527,
      "ĠVolk": 1528,
      "ĠSinne": 1529,
      "ĠIst": 1530,
      "ĠgewiÃŁ": 1531,
      "Ġbringen": 1532,
      "Ġbemerk": 1533,
      "maÃŁen": 1534,
      "oben": 1535,
      "uchen": 1536,
      "Ġen": 1537,
      "Ġbist": 1538,
      "ĠEugen": 1539,
      "ĠFrei": 1540,
      "Ã¤nger": 1541,
      "Ã¤us": 1542,
      "ĠNeigung": 1543,
      "ĠGebir": 1544,
      "ĠGedanken": 1545,
      "unft": 1546,
      "sche": 1547,
      "Ġdaher": 1548,
      "Ġbeste": 1549,
      "ĠArb": 1550,
      "ĠEugenie": 1551,
      "].": 1552,
      "baren": 1553,
      "inz": 1554,
      "Ġfehl": 1555,
      "stell": 1556,
      "ĠDies": 1557,
      "Ġhe": 1558,
      "Ġheute": 1559,
      "ĠPap": 1560,
      "ĠEine": 1561,
      "ink": 1562,
      "Ġerwar": 1563,
      "ĠDes": 1564,
      "ĠKar": 1565,
      "Ġdabei": 1566,
      "ĠLieb": 1567,
      "ĠFelsen": 1568,
      "ĠfrÃ¼h": 1569,
      "ĠZustand": 1570,
      "im": 1571,
      "erken": 1572,
      "Ġgl": 1573,
      "ĠDr": 1574,
      "cke": 1575,
      "Ġentw": 1576,
      "ĠGelegenheit": 1577,
      "gte": 1578,
      "ieÃŁen": 1579,
      "ĠGanz": 1580,
      "igte": 1581,
      "ĠKna": 1582,
      "iere": 1583,
      "ĠAuge": 1584,
      "Ġew": 1585,
      "ĠBegriff": 1586,
      "Sie": 1587,
      "eils": 1588,
      "Ã¼cke": 1589,
      "Ġverschieden": 1590,
      "Ġhoff": 1591,
      "Ġ17": 1592,
      "Ġnahm": 1593,
      "ĠSophie": 1594,
      "ĠSache": 1595,
      "ĠKrei": 1596,
      "erne": 1597,
      "Ġoben": 1598,
      "Ġstar": 1599,
      "Ã¼b": 1600,
      "Ġviele": 1601,
      "Ã¼cht": 1602,
      "Ġfro": 1603,
      "auch": 1604,
      "Ġniemand": 1605,
      "Ġfreundlich": 1606,
      "ĠKn": 1607,
      "ernen": 1608,
      "eilen": 1609,
      "ĠFrem": 1610,
      "ĠgegenwÃ¤rt": 1611,
      "dige": 1612,
      "wie": 1613,
      "ĠDien": 1614,
      "Ã¶pf": 1615,
      "Ġmancher": 1616,
      "ĠGegenwart": 1617,
      "Ġangenehm": 1618,
      "Ã¶st": 1619,
      "Ġinn": 1620,
      "ĠEmpf": 1621,
      "ĠTal": 1622,
      "ĠNur": 1623,
      "geste": 1624,
      "ĠBetracht": 1625,
      "ĠmÃ¼ssen": 1626,
      "ost": 1627,
      "Ġdeu": 1628,
      "ĠBar": 1629,
      "ĠHe": 1630,
      "ĠNÃ¤": 1631,
      "Ġherum": 1632,
      "Ġru": 1633,
      "voll": 1634,
      "igem": 1635,
      "ĠLicht": 1636,
      "ĠUr": 1637,
      "Ġbeweg": 1638,
      "ischer": 1639,
      "Ġliegt": 1640,
      "bringen": 1641,
      "Ġbisher": 1642,
      "ĠMeer": 1643,
      "ausend": 1644,
      "falt": 1645,
      "mlich": 1646,
      "chsel": 1647,
      "Ġseit": 1648,
      "Ġerhalten": 1649,
      "Ã¶l": 1650,
      "ĠTh": 1651,
      "ĠGespr": 1652,
      "ĠfrÃ¼her": 1653,
      "az": 1654,
      "fr": 1655,
      "mÃ¶": 1656,
      "sal": 1657,
      "ĠGi": 1658,
      "ĠWo": 1659,
      "schaf": 1660,
      "ĠBu": 1661,
      "ret": 1662,
      "amil": 1663,
      "old": 1664,
      "ĠÃ¼brigen": 1665,
      "ĠKÃ¼nstler": 1666,
      "Ġnat": 1667,
      "Ġaufzu": 1668,
      "ĠErde": 1669,
      "Ġtrat": 1670,
      "ĠTasso": 1671,
      "afen": 1672,
      "lung": 1673,
      "Ġhie": 1674,
      "ĠSÃ¶ll": 1675,
      "etter": 1676,
      "zug": 1677,
      "Ġhinein": 1678,
      "Ġhinauf": 1679,
      "ĠBed": 1680,
      "meister": 1681,
      "ss": 1682,
      "Ġneben": 1683,
      "Ġkr": 1684,
      "Ġheiter": 1685,
      "ĠhÃ¶ren": 1686,
      "iv": 1687,
      "Ġzerst": 1688,
      "ĠMir": 1689,
      "ĠEhr": 1690,
      "Ġschnell": 1691,
      "Ġhinaus": 1692,
      "ĠHerzog": 1693,
      "ĠPlatz": 1694,
      "ĠMaj": 1695,
      "ĠGestalt": 1696,
      "ĠMÃ¤nner": 1697,
      "ĠvÃ¶llig": 1698,
      "Ġnehmen": 1699,
      "ĠAch": 1700,
      "uren": 1701,
      "eile": 1702,
      "ĠÃ¼berall": 1703,
      "prochen": 1704,
      "ppen": 1705,
      "ĠWar": 1706,
      "ĠNot": 1707,
      "umen": 1708,
      "Ġbesten": 1709,
      "Ġfrem": 1710,
      "undert": 1711,
      "klÃ¤r": 1712,
      "Ġkurz": 1713,
      "ĠSÃ¶ller": 1714,
      "jen": 1715,
      "Ġben": 1716,
      "Ġerinn": 1717,
      "ĠEigen": 1718,
      "ĠHin": 1719,
      "ĠPh": 1720,
      "ĠWege": 1721,
      "ĠKopf": 1722,
      "tag": 1723,
      "Ã¼h": 1724,
      "ĠDurch": 1725,
      "Ġsollen": 1726,
      "ĠBeweg": 1727,
      "ĠGesicht": 1728,
      "ziehen": 1729,
      "frieden": 1730,
      "abe": 1731,
      "zlich": 1732,
      "chmal": 1733,
      "unge": 1734,
      "Ġvier": 1735,
      "ĠWagen": 1736,
      "Ġdadurch": 1737,
      "Ġkleine": 1738,
      "ĠfÃ¼hlte": 1739,
      "ĠReise": 1740,
      "ĠAnton": 1741,
      "ĠnatÃ¼r": 1742,
      ".]": 1743,
      "osen": 1744,
      "elte": 1745,
      "Ġfiel": 1746,
      "aur": 1747,
      "ĠĠĠĠĠ": 1748,
      "Ġdazu": 1749,
      "Ã¼nschen": 1750,
      "bare": 1751,
      "kraft": 1752,
      "Ġletzten": 1753,
      "ĠZwei": 1754,
      "ĠSchick": 1755,
      "Ã¤nder": 1756,
      "ĠWirk": 1757,
      "ĠHÃ¶he": 1758,
      "!--": 1759,
      "hau": 1760,
      "pl": 1761,
      "eren": 1762,
      "icher": 1763,
      "ilde": 1764,
      "ĠRecht": 1765,
      "Ġfreu": 1766,
      "ĠFamil": 1767,
      "ĠVort": 1768,
      "Ġalso": 1769,
      "Ġoffen": 1770,
      "ĠOrt": 1771,
      "Ġneuen": 1772,
      "ĠHoffnung": 1773,
      "?\"": 1774,
      "tes": 1775,
      "zeit": 1776,
      "Ġfast": 1777,
      "ĠFen": 1778,
      "angt": 1779,
      "Ġhielt": 1780,
      "ore": 1781,
      "stÃ¤nde": 1782,
      "Ġbleiben": 1783,
      "Ġpr": 1784,
      "Ġeig": 1785,
      "Ġmerk": 1786,
      "ĠSeiten": 1787,
      "Ġkennen": 1788,
      "Ġdahin": 1789,
      "ĠSchon": 1790,
      "Ġjedem": 1791,
      "Ġsehn": 1792,
      "Ġdaran": 1793,
      "Ġsa": 1794,
      "Ġverk": 1795,
      "indung": 1796,
      "Ġweniger": 1797,
      "ĠSonne": 1798,
      "Er": 1799,
      "to": 1800,
      "Ã¤ter": 1801,
      "Ã¤ngen": 1802,
      "reifen": 1803,
      "ĠKraft": 1804,
      "schaften": 1805,
      "itel": 1806,
      "ĠdÃ¼r": 1807,
      "ĠSel": 1808,
      "Ġeinander": 1809,
      "ĠauÃŁer": 1810,
      "ĠWert": 1811,
      "Ã¶s": 1812,
      "ĠIm": 1813,
      "Ã¤nge": 1814,
      "ilder": 1815,
      "Ġabzu": 1816,
      "ĠBrem": 1817,
      "Ã¤ngst": 1818,
      "Ã¼ÃŁte": 1819,
      "ia": 1820,
      "Ġblieb": 1821,
      "igsten": 1822,
      "licht": 1823,
      "ĠDem": 1824,
      "alien": 1825,
      "ĠFÃ¤": 1826,
      "ochter": 1827,
      "ĠĠĠĠĠĠĠĠĠ": 1828,
      "Ġsonder": 1829,
      "Ġwenigstens": 1830,
      "Ã¤ume": 1831,
      "aff": 1832,
      "wir": 1833,
      "ĠsÃ¤": 1834,
      "Ã¼re": 1835,
      "Ġausge": 1836,
      "ĠkÃ¶nne": 1837,
      "ĠBesitz": 1838,
      "Ġbleibt": 1839,
      "Ġfolgen": 1840,
      "ĠPersonen": 1841,
      "endet": 1842,
      "ette": 1843,
      "annt": 1844,
      "Ġbequem": 1845,
      "Ġvollkommen": 1846,
      "ĠBoden": 1847,
      "lassen": 1848,
      "Ã¼ÃŁen": 1849,
      "lichsten": 1850,
      "achtet": 1851,
      "Ġverh": 1852,
      "Ġdagegen": 1853,
      "ĠNamen": 1854,
      "Ġbeide": 1855,
      "Ġsollten": 1856,
      "ĠGeschÃ¤ft": 1857,
      "ĠJahren": 1858,
      "Ġweder": 1859,
      "ĠLuc": 1860,
      "dre": 1861,
      "Ġliebe": 1862,
      "Ġkonnten": 1863,
      "ĠHerrn": 1864,
      "ĠJahre": 1865,
      "igung": 1866,
      "Ġerste": 1867,
      "ĠTisch": 1868,
      "ĠSchmer": 1869,
      "ĠSchiff": 1870,
      "lieÃŁ": 1871,
      "ĠMajor": 1872,
      "kunft": 1873,
      "rÃ¤n": 1874,
      "ĠnÃ¤ch": 1875,
      "ĠGut": 1876,
      "ĠStunde": 1877,
      "Ġhalb": 1878,
      "Ġentschieden": 1879,
      "ĠBrief": 1880,
      "seit": 1881,
      "zte": 1882,
      "Ġerl": 1883,
      "ĠHeil": 1884,
      "Ġvern": 1885,
      "ĠLot": 1886,
      "ings": 1887,
      "ĠdarÃ¼ber": 1888,
      "ĠLuft": 1889,
      "heiten": 1890,
      "Ġwegen": 1891,
      "Ġgeist": 1892,
      "Ã¤glich": 1893,
      "Ġzeig": 1894,
      "Ġgegeben": 1895,
      "Ġverf": 1896,
      "ĠRaum": 1897,
      "Ġumher": 1898,
      "ĠgehÃ¶rt": 1899,
      "ĠWein": 1900,
      "ĠWider": 1901,
      "Ġsodann": 1902,
      "ĠFol": 1903,
      "Ġmanchmal": 1904,
      "tragen": 1905,
      "ildet": 1906,
      "ickt": 1907,
      "ĠAufmerksam": 1908,
      "Ġ178": 1909,
      "zimmer": 1910,
      "Ġro": 1911,
      "ieht": 1912,
      "Ġgetan": 1913,
      "ĠPar": 1914,
      "Ġbeim": 1915,
      "Ġgenau": 1916,
      "wand": 1917,
      "Ġdeine": 1918,
      "inken": 1919,
      "Ġzer": 1920,
      "Ġzog": 1921,
      "genommen": 1922,
      "ĠGleich": 1923,
      "Ġihres": 1924,
      "ĠAnl": 1925,
      "ĠAnblick": 1926,
      "--\"": 1927,
      "Ġgeste": 1928,
      "Ġfragte": 1929,
      "ĠBreme": 1930,
      "del": 1931,
      "ĠLage": 1932,
      "ĠTochter": 1933,
      "Ġbegeg": 1934,
      "Ġsehe": 1935,
      "Ġkamen": 1936,
      "Ġsprach": 1937,
      "ĠWorte": 1938,
      "mÃ¤ÃŁ": 1939,
      "setzen": 1940,
      "wor": 1941,
      "ĠWohl": 1942,
      "Ġfor": 1943,
      "alk": 1944,
      "ĠLei": 1945,
      "Ġliegen": 1946,
      "mittel": 1947,
      "Ġbemerken": 1948,
      "ĠHauptmann": 1949,
      "fÃ¼hren": 1950,
      ").": 1951,
      "Ġpfl": 1952,
      "Ã¤gt": 1953,
      "ĠSor": 1954,
      "Ġbekannt": 1955,
      "Ã¤nden": 1956,
      "ĠVertr": 1957,
      "ĠJugend": 1958,
      "chs": 1959,
      "ĠSa": 1960,
      "Ġeinzu": 1961,
      "Ġerblick": 1962,
      "Ġheran": 1963,
      "ĠFÃ¼rst": 1964,
      "ahn": 1965,
      "abt": 1966,
      "sinn": 1967,
      "zeu": 1968,
      "Ġjungen": 1969,
      "urcht": 1970,
      "Ġwiederhol": 1971,
      "ĠgenieÃŁen": 1972,
      "Ġhohen": 1973,
      "ene": 1974,
      "eiben": 1975,
      "Ġerr": 1976,
      "ĠDaÃŁ": 1977,
      "Ġgekommen": 1978,
      "ĠAuft": 1979,
      "Ġvielen": 1980,
      "aÃŁe": 1981,
      "Ã¶ren": 1982,
      "ĠgrÃ¼n": 1983,
      "Ġalte": 1984,
      "enntnis": 1985,
      "ĠNeap": 1986,
      "ĠPferde": 1987,
      "len": 1988,
      "teten": 1989,
      "ĠFor": 1990,
      "ille": 1991,
      "ĠMittel": 1992,
      "Ġunserer": 1993,
      "ĠÃĦ": 1994,
      "ĠCharlotten": 1995,
      "Ġfindet": 1996,
      "Ġlebhaft": 1997,
      "ĠArbeit": 1998,
      "test": 1999,
      "Ġdeinen": 2000,
      "inen": 2001,
      "ons": 2002,
      "Ġdergleichen": 2003,
      "denk": 2004,
      "egte": 2005,
      "Ġjede": 2006,
      "rieben": 2007,
      "imme": 2008,
      "Ġgefunden": 2009,
      "ĠSchicksal": 2010,
      "ĠAufmerksamkeit": 2011,
      "ian": 2012,
      "Ġmoch": 2013,
      "ale": 2014,
      "ĠFest": 2015,
      "Ġdesto": 2016,
      "Ġklar": 2017,
      "nÃ¼gen": 2018,
      "ĠGesprÃ¤ch": 2019,
      "wohl": 2020,
      "ure": 2021,
      "Ġmanche": 2022,
      "Ġteil": 2023,
      "Ġdurchaus": 2024,
      "ĠgroÃŁer": 2025,
      "Ġsuchte": 2026,
      "ieg": 2027,
      "Ġhol": 2028,
      "ĠGro": 2029,
      "ĠWunder": 2030,
      "ĠBerg": 2031,
      "ĠgrÃ¶ÃŁten": 2032,
      "Ġentwick": 2033,
      "elle": 2034,
      "Ġsagt": 2035,
      "Ġschle": 2036,
      "Ġjem": 2037,
      "Ġmeines": 2038,
      "Ġtausend": 2039,
      "nehm": 2040,
      "ĠUnterhalt": 2041,
      "Ġerfreu": 2042,
      "Ġlag": 2043,
      "Ġans": 2044,
      "ĠLeute": 2045,
      "ĠGefahr": 2046,
      "ĠUnglÃ¼ck": 2047,
      "ĠBrust": 2048,
      "Ã¤umen": 2049,
      "ĠPrinz": 2050,
      "Ġernst": 2051,
      "ĠBewegung": 2052,
      "alle": 2053,
      "inde": 2054,
      "Ã¤che": 2055,
      "Ã¤llt": 2056,
      "Ġeinf": 2057,
      "igkeiten": 2058,
      "ĠZwe": 2059,
      "Ġselt": 2060,
      "Ġwelchem": 2061,
      "ĠGrund": 2062,
      "ĠGebÃ¤u": 2063,
      "Ã¤hrt": 2064,
      "Ġeinzel": 2065,
      "eitet": 2066,
      "ĠhÃ¤lt": 2067,
      "ĠSein": 2068,
      "Ġfern": 2069,
      "Ġfanden": 2070,
      "get": 2071,
      "Ġant": 2072,
      "ĠGeh": 2073,
      "ungskraft": 2074,
      "ĠRuhe": 2075,
      "ĠAntonio": 2076,
      "ĠNeapel": 2077,
      "deckt": 2078,
      "Ġsogar": 2079,
      "Ġnunmehr": 2080,
      "Ġrechten": 2081,
      "ĠMenge": 2082,
      "ĠGeld": 2083,
      "gestellt": 2084,
      "ĠWahr": 2085,
      "ĠHÃ¼gel": 2086,
      "Ġbek": 2087,
      "Ġtreff": 2088,
      "blieben": 2089,
      "stÃ¤ndig": 2090,
      "uer": 2091,
      "ters": 2092,
      "ehrte": 2093,
      "Ġanders": 2094,
      "ĠNachbar": 2095,
      "ĠAbsch": 2096,
      "Ġruhig": 2097,
      "ĠGarten": 2098,
      "ĠBaron": 2099,
      "Ġsahen": 2100,
      "wind": 2101,
      "Ã¤nen": 2102,
      "ĠUns": 2103,
      "Ġstillen": 2104,
      "Ġsolcher": 2105,
      "Ġjenen": 2106,
      "Ġunserm": 2107,
      "ĠFenster": 2108,
      "ient": 2109,
      "zeug": 2110,
      "stern": 2111,
      "elten": 2112,
      "ĠBem": 2113,
      "bert": 2114,
      "Ġanf": 2115,
      "Ġjedes": 2116,
      "ĠschÃ¶nsten": 2117,
      "Ġbeglei": 2118,
      "ker": 2119,
      "talien": 2120,
      "uder": 2121,
      "essen": 2122,
      "ĠGast": 2123,
      "orn": 2124,
      "Ġschick": 2125,
      "ĠJÃ¼n": 2126,
      "Ã¤tigkeit": 2127,
      "Ġsprechen": 2128,
      "Ġ1787": 2129,
      "RI": 2130,
      "ic": 2131,
      "Ġhoch": 2132,
      "Ġeinigen": 2133,
      "ĠMich": 2134,
      "ĠFeuer": 2135,
      "reck": 2136,
      "Ġvorbei": 2137,
      "Ġhinzu": 2138,
      "Ġbrachte": 2139,
      "dung": 2140,
      "gs": 2141,
      "if": 2142,
      "Ġung": 2143,
      "Ġmei": 2144,
      "Ġerre": 2145,
      "Ġleiden": 2146,
      "Ġwarum": 2147,
      "andeln": 2148,
      "ĠReg": 2149,
      "ĠAnst": 2150,
      "Ã¤tzen": 2151,
      "Ġmehrere": 2152,
      "spiel": 2153,
      "ĠKirche": 2154,
      "bald": 2155,
      "iegen": 2156,
      "iesen": 2157,
      "onnen": 2158,
      "ĠFar": 2159,
      "ĠGeheim": 2160,
      "ĠVers": 2161,
      "ĠVerz": 2162,
      "Ġniemals": 2163,
      "ĠKapitel": 2164,
      "Ġunver": 2165,
      "ichter": 2166,
      "Ġverste": 2167,
      "ĠKÃ¤": 2168,
      "Ġschm": 2169,
      "Ġvoraus": 2170,
      "reiten": 2171,
      "ĠErst": 2172,
      "Ġwechsel": 2173,
      "Ġseltsam": 2174,
      "viel": 2175,
      "llte": 2176,
      "irr": 2177,
      "ĠDann": 2178,
      "achsen": 2179,
      "Ġkenn": 2180,
      "deck": 2181,
      "ĠBeh": 2182,
      "Ġglaubte": 2183,
      "essin": 2184,
      "ĠHofmeister": 2185,
      "Ġsetzte": 2186,
      "Ġmorgen": 2187,
      "ĠWun": 2188,
      "ĠDam": 2189,
      "Ġgek": 2190,
      "Ġdarin": 2191,
      "Ġjenes": 2192,
      "ĠGewalt": 2193,
      "ĠVergnÃ¼gen": 2194,
      "ĠKnaben": 2195,
      "II": 2196,
      "ufen": 2197,
      "Ġabend": 2198,
      "ĠWol": 2199,
      "ĠMus": 2200,
      "Ġindessen": 2201,
      "ĠEuch": 2202,
      "ĠBel": 2203,
      "ĠKÃ¶r": 2204,
      "Ġvielmehr": 2205,
      "Ġbrau": 2206,
      "laub": 2207,
      "ĠBruder": 2208,
      "ĠRede": 2209,
      "ĠAlles": 2210,
      "ĠNÃ¤he": 2211,
      "lichste": 2212,
      "ĠBÃ¼": 2213,
      "ĠKu": 2214,
      "Ġjung": 2215,
      "Ġabermals": 2216,
      "pfer": 2217,
      "pfel": 2218,
      "gefÃ¼hrt": 2219,
      "ĠAllein": 2220,
      "ĠGericht": 2221,
      "hst": 2222,
      "immen": 2223,
      "met": 2224,
      "pe": 2225,
      "pel": 2226,
      "ĠDe": 2227,
      "ĠFall": 2228,
      "ĠKlei": 2229,
      "utzen": 2230,
      "Ġwert": 2231,
      "Ġlieber": 2232,
      "ĠschÃ¶ner": 2233,
      "teilen": 2234,
      "Ġdeutlich": 2235,
      "ite": 2236,
      "olle": 2237,
      "ocken": 2238,
      "ud": 2239,
      "uter": 2240,
      "Ġgingen": 2241,
      "ĠJe": 2242,
      "Ġselten": 2243,
      "fÃ¤ll": 2244,
      "Ã¤ul": 2245,
      "arb": 2246,
      "Ġleich": 2247,
      "ĠTagen": 2248,
      "Ġtreu": 2249,
      "Ġteils": 2250,
      "ĠGemÃ¼t": 2251,
      ".--\"": 2252,
      "ĠnÃ¶tig": 2253,
      "los": 2254,
      "opp": 2255,
      "anke": 2256,
      "ont": 2257,
      "ĠDar": 2258,
      "Ġfassen": 2259,
      "ĠKrie": 2260,
      "ĠKomm": 2261,
      "iss": 2262,
      "Ġdeshalb": 2263,
      "ĠErn": 2264,
      "ĠAngel": 2265,
      "ĠGrÃ¤": 2266,
      "gesetzt": 2267,
      "Ġgefallen": 2268,
      "Ġverlassen": 2269,
      "ĠhÃ¶her": 2270,
      "ohnt": 2271,
      "gegangen": 2272,
      "ĠmÃ¼sse": 2273,
      "ĠHofmeisterin": 2274,
      "nungen": 2275,
      "pen": 2276,
      "ras": 2277,
      "Ġinner": 2278,
      "ĠEg": 2279,
      "ĠBaum": 2280,
      "Ġscheinen": 2281,
      "ĠSchul": 2282,
      "ĠvorÃ¼ber": 2283,
      "ĠStein": 2284,
      "Ġreden": 2285,
      "Ġgelang": 2286,
      "Ġdeiner": 2287,
      "Ġerschien": 2288,
      "ĠeinigermaÃŁen": 2289,
      "akter": 2290,
      "ammen": 2291,
      "die": 2292,
      "piel": 2293,
      "Ġqu": 2294,
      "iegel": 2295,
      "Ġsitzen": 2296,
      "Ġeins": 2297,
      "ĠkÃ¼nft": 2298,
      "ĠHil": 2299,
      "Ġandre": 2300,
      "sehn": 2301,
      "ĠNoch": 2302,
      "Ġjunge": 2303,
      "ĠtÃ¤t": 2304,
      "ĠGegenstÃ¤nde": 2305,
      "ĠTages": 2306,
      "kannte": 2307,
      "sprechen": 2308,
      "ĠÃ¤hn": 2309,
      "ĠTod": 2310,
      "Ġzeigte": 2311,
      "ebt": 2312,
      "esse": 2313,
      "Ġzuge": 2314,
      "ierten": 2315,
      "Ġherunter": 2316,
      "ĠStÃ¼ck": 2317,
      "Ġsey": 2318,
      "wegs": 2319,
      "ĠIhre": 2320,
      "ĠgewÃ¶hnlich": 2321,
      "ĠLeidenschaft": 2322,
      "Ġewig": 2323,
      "ĠBusen": 2324,
      "ĠAuftritt": 2325,
      "XX": 2326,
      "wegen": 2327,
      "wohn": 2328,
      "ĠÃ¶": 2329,
      "Ġerb": 2330,
      "Ġgebracht": 2331,
      "utz": 2332,
      "Ġgewissen": 2333,
      "brochen": 2334,
      "inner": 2335,
      "ertig": 2336,
      "ĠfÃ¼hren": 2337,
      "ĠWorten": 2338,
      "Ġheft": 2339,
      "Ġmochte": 2340,
      "ĠGeheimnis": 2341,
      "lagen": 2342,
      "ĠÃ¶ff": 2343,
      "ĠwÃ¼nschen": 2344,
      "Ã¤fte": 2345,
      "orgt": 2346,
      "ĠWohn": 2347,
      "Ã¶tt": 2348,
      "ĠBuch": 2349,
      "Ġgehalten": 2350,
      "ĠZeiten": 2351,
      "Ġwodurch": 2352,
      "ĠPal": 2353,
      "ierte": 2354,
      "andelt": 2355,
      "ĠRat": 2356,
      "ĠRÃ¼ck": 2357,
      "Ġdiesmal": 2358,
      "herr": 2359,
      "Ġtraur": 2360,
      "Ġgestern": 2361,
      "elnd": 2362,
      "ĠUnterhaltung": 2363,
      "Ġnennen": 2364,
      "Ġvollen": 2365,
      "igfalt": 2366,
      "ĠTÃ¼re": 2367,
      "ĠSchr": 2368,
      "isches": 2369,
      "Ġherab": 2370,
      "Ġherauf": 2371,
      "ĠStimme": 2372,
      "heater": 2373,
      "Ġgenommen": 2374,
      "digt": 2375,
      "ĠbeschÃ¤ftigt": 2376,
      "ĠSprache": 2377,
      "ĠSorge": 2378,
      "hern": 2379,
      "ose": 2380,
      "ra": 2381,
      "Ġmuss": 2382,
      "Ã¼gen": 2383,
      "Ġzuerst": 2384,
      "ĠWetter": 2385,
      "ĠkÃ¼": 2386,
      "tert": 2387,
      "ĠlÃ¤nger": 2388,
      "reut": 2389,
      "Ġschwar": 2390,
      "ĠNie": 2391,
      "ĠSchritt": 2392,
      "Ġtragen": 2393,
      "Ġgleichfalls": 2394,
      "ĠSee": 2395,
      "ĠTrÃ¤nen": 2396,
      "ppe": 2397,
      "Ġobgleich": 2398,
      "ĠOrd": 2399,
      "ĠSelbst": 2400,
      "ĠJÃ¼ngl": 2401,
      "komm": 2402,
      "ober": 2403,
      "Ġmus": 2404,
      "onore": 2405,
      "Ã¶m": 2406,
      "itze": 2407,
      "Ġtat": 2408,
      "ĠFrie": 2409,
      "afel": 2410,
      "Ġwollten": 2411,
      "nahme": 2412,
      "ix": 2413,
      "chter": 2414,
      "ester": 2415,
      "Ġguter": 2416,
      "Ġgeg": 2417,
      "Ġunsre": 2418,
      "ĠDieser": 2419,
      "Ġhinab": 2420,
      "Ġverspr": 2421,
      "ĠhÃ¤tten": 2422,
      "ĠfÃ¼hlt": 2423,
      "ĠKreis": 2424,
      "Ġbilden": 2425,
      "Ġerlau": 2426,
      "Ġwirst": 2427,
      "ĠSchm": 2428,
      "ĠAnf": 2429,
      "Ġverschw": 2430,
      "kannten": 2431,
      "ĠAmine": 2432,
      "ĠWunsch": 2433,
      "Ġdeut": 2434,
      "Ġacht": 2435,
      "Ã¼llt": 2436,
      "Ġnot": 2437,
      "Ã¤g": 2438,
      "Ġeingesch": 2439,
      "Ġerfahren": 2440,
      "itzt": 2441,
      "ĠMag": 2442,
      "urt": 2443,
      "ager": 2444,
      "ahren": 2445,
      "illig": 2446,
      "lieÃŁt": 2447,
      "Ġwelchen": 2448,
      "ĠIndessen": 2449,
      "ĠhÃ¶rte": 2450,
      "Ġliebens": 2451,
      "Ġerkennen": 2452,
      "ĠFamilie": 2453,
      "ĠGebÃ¤ude": 2454,
      "aber": 2455,
      "ho": 2456,
      "pft": 2457,
      "umm": 2458,
      "ĠerklÃ¤r": 2459,
      "scht": 2460,
      "ĠĠĠĠĠĠ": 2461,
      "Ġlau": 2462,
      "ĠlÃ¤ch": 2463,
      "Ġlernen": 2464,
      "Ġwolle": 2465,
      "pfen": 2466,
      "zend": 2467,
      "ĠVors": 2468,
      "Ġgleichsam": 2469,
      "Ġgeschehen": 2470,
      "ĠAlbert": 2471,
      "rift": 2472,
      "ĠwÃ¼rden": 2473,
      "Ġworauf": 2474,
      "haften": 2475,
      "Ġmancherlei": 2476,
      "ĠEgle": 2477,
      "ĠOrdnung": 2478,
      "legen": 2479,
      "rer": 2480,
      "unkt": 2481,
      "Ġunmittel": 2482,
      "indet": 2483,
      "Ã¼hen": 2484,
      "ĠWel": 2485,
      "ĠMeine": 2486,
      "Ġaufmerksam": 2487,
      "ĠZeich": 2488,
      "Ġtut": 2489,
      "ĠEinbild": 2490,
      "ĠFranz": 2491,
      "ĠBlÃ¤t": 2492,
      "ĠArm": 2493,
      "zehn": 2494,
      "Ġebenso": 2495,
      "ĠCharakter": 2496,
      "ĠAmt": 2497,
      "haupt": 2498,
      "ĠMusik": 2499,
      "ellen": 2500,
      "fallen": 2501,
      "kten": 2502,
      "nt": 2503,
      "Ġsag": 2504,
      "Ã¼ben": 2505,
      "Ġzeigen": 2506,
      "ĠerÃ¶ff": 2507,
      "ĠNein": 2508,
      "ĠZeichen": 2509,
      "ĠRegen": 2510,
      "isse": 2511,
      "ĠstÃ¼r": 2512,
      "ĠGeschichte": 2513,
      "ĠBlumen": 2514,
      "Ġetwa": 2515,
      "ĠStraÃŁe": 2516,
      "ĠSchÃ¶ne": 2517,
      "Ã¼lfe": 2518,
      "Mar": 2519,
      "ete": 2520,
      "isten": 2521,
      "kehren": 2522,
      "treten": 2523,
      "zahl": 2524,
      "Ã¤ss": 2525,
      "Ġeinge": 2526,
      "Ġfertig": 2527,
      "ĠKÃ¼": 2528,
      "ĠTon": 2529,
      "ĠTÃ¤tigkeit": 2530,
      "Ġstanden": 2531,
      "Ġdaraus": 2532,
      "Ġsolches": 2533,
      "ĠArme": 2534,
      "ĠFreundin": 2535,
      "Ġhoffen": 2536,
      "mack": 2537,
      "Ġleider": 2538,
      "ĠKnie": 2539,
      "Die": 2540,
      "chite": 2541,
      "Ġzufrieden": 2542,
      "ĠWill": 2543,
      "scher": 2544,
      "deut": 2545,
      "reben": 2546,
      "Ġverst": 2547,
      "Ġschreiben": 2548,
      "ĠÃ¼berzeu": 2549,
      "indr": 2550,
      "Ġverloren": 2551,
      "ĠEntfern": 2552,
      "ĠhÃ¶chsten": 2553,
      "ĠLeonore": 2554,
      "!âĢľ": 2555,
      "fin": 2556,
      "hielt": 2557,
      "erz": 2558,
      "iefen": 2559,
      "Ġzw": 2560,
      "Ġzier": 2561,
      "ĠGÃ¶t": 2562,
      "ĠWillen": 2563,
      "ĠBest": 2564,
      "Ġgedr": 2565,
      "ĠFe": 2566,
      "ĠÃ¼berras": 2567,
      "ĠErid": 2568,
      "ister": 2569,
      "Ġgehabt": 2570,
      "ĠFeld": 2571,
      "ĠgegenwÃ¤rtig": 2572,
      "ĠPrinzessin": 2573,
      "ate": 2574,
      "ov": 2575,
      "sichten": 2576,
      "Ġdachte": 2577,
      "ieten": 2578,
      "arm": 2579,
      "onne": 2580,
      "Ġderselben": 2581,
      "ĠWÃ¼r": 2582,
      "ĠHÃ¤nde": 2583,
      "Ġanmut": 2584,
      "ĠLen": 2585,
      "Ã¤nd": 2586,
      "Ã¼nde": 2587,
      "zeichnet": 2588,
      "ĠerzÃ¤hlen": 2589,
      "ĠEridon": 2590,
      "fÃ¤lt": 2591,
      "lang": 2592,
      "oten": 2593,
      "ru": 2594,
      "ĠÃ¤l": 2595,
      "Ġmeist": 2596,
      "ĠSich": 2597,
      "recht": 2598,
      "ĠTro": 2599,
      "ĠZum": 2600,
      "ĠPo": 2601,
      "ĠvorzÃ¼": 2602,
      "reise": 2603,
      "ĠGesinn": 2604,
      "rieb": 2605,
      "ĠEndlich": 2606,
      "Ġeh": 2607,
      "Ġfinde": 2608,
      "ĠFrauenzimmer": 2609,
      "ĠwÃ¼nschte": 2610,
      "ĠVorteil": 2611,
      "ĠGerichts": 2612,
      "ĠEinbildungskraft": 2613,
      "ĠEindr": 2614,
      "ĠKenntnis": 2615,
      "Ġwirken": 2616,
      "Ġmanchen": 2617,
      "Ġallzu": 2618,
      "ehre": 2619,
      "Ġseh": 2620,
      "ĠWieder": 2621,
      "Ġbegr": 2622,
      "Ã¤uf": 2623,
      "ĠUmgeb": 2624,
      "ĠFÃ¼rsten": 2625,
      "ĠFreuden": 2626,
      "ĠfÃ¼hrte": 2627,
      "gestalt": 2628,
      "Ġsuchen": 2629,
      "ĠSonnen": 2630,
      "ĠSchmerz": 2631,
      "ĠGroÃŁ": 2632,
      "Ġsan": 2633,
      "Ã¤h": 2634,
      "ĠWind": 2635,
      "ĠWander": 2636,
      "aul": 2637,
      "ĠkÃ¶st": 2638,
      "ĠFig": 2639,
      "Ġangel": 2640,
      "Ġvorzu": 2641,
      "ielten": 2642,
      "Ġgewalt": 2643,
      "ĠOber": 2644,
      "Ġtritt": 2645,
      "immung": 2646,
      "Ġseien": 2647,
      "riffen": 2648,
      "ionen": 2649,
      "ĠFels": 2650,
      "ĠHimmels": 2651,
      "Ġlebendig": 2652,
      "stellung": 2653,
      "ĠBetrachtung": 2654,
      "Es": 2655,
      "kte": 2656,
      "th": 2657,
      "zer": 2658,
      "Ġmen": 2659,
      "Ġnah": 2660,
      "ĠSachen": 2661,
      "ĠDor": 2662,
      "ĠMÃ¼": 2663,
      "ĠMas": 2664,
      "urfte": 2665,
      "ĠHei": 2666,
      "Ġlust": 2667,
      "Ġletzte": 2668,
      "ĠLi": 2669,
      "andt": 2670,
      "stet": 2671,
      "ĠErinner": 2672,
      "Ġunterhalten": 2673,
      "ĠFreunden": 2674,
      "ĠPfl": 2675,
      "ĠAugenblicke": 2676,
      "ĠÃ¼brig": 2677,
      "ĠBetragen": 2678,
      "aunen": 2679,
      "Ġgewisse": 2680,
      "wendig": 2681,
      "ĠUrs": 2682,
      "jenige": 2683,
      "nern": 2684,
      "stchen": 2685,
      "ĠHal": 2686,
      "ĠHat": 2687,
      "ĠKan": 2688,
      "oche": 2689,
      "eitung": 2690,
      "Ã¼rger": 2691,
      "anze": 2692,
      "anzen": 2693,
      "uÃŁt": 2694,
      "ĠOkt": 2695,
      "ahrt": 2696,
      "Ġsolle": 2697,
      "ĠfÃ¼hlen": 2698,
      "Ġdeinem": 2699,
      "Ġnahe": 2700,
      "ĠVerhÃ¤ltnisse": 2701,
      "Ġgedacht": 2702,
      "dacht": 2703,
      "ium": 2704,
      "Ġsorg": 2705,
      "Ġunw": 2706,
      "stein": 2707,
      "Ġfing": 2708,
      "Ġgehe": 2709,
      "urm": 2710,
      "ĠFein": 2711,
      "Ġlangen": 2712,
      "ĠKor": 2713,
      "Ġschwei": 2714,
      "Ã¤nglich": 2715,
      "Ġausges": 2716,
      "reif": 2717,
      "Ġentz": 2718,
      "oss": 2719,
      "Ġgelegen": 2720,
      "Ġbringt": 2721,
      "underung": 2722,
      "ĠAussicht": 2723,
      "ĠAbsicht": 2724,
      "ĠfÃ¼hle": 2725,
      "Ġziemlich": 2726,
      "Ġirgendein": 2727,
      "ĠglÃ¤n": 2728,
      "ging": 2729,
      "ok": 2730,
      "uchte": 2731,
      "yr": 2732,
      "erte": 2733,
      "Ġde": 2734,
      "iebt": 2735,
      "ĠunglÃ¼ck": 2736,
      "Ġheut": 2737,
      "ĠWin": 2738,
      "ĠDeut": 2739,
      "Ġgehn": 2740,
      "ĠTe": 2741,
      "ĠItalien": 2742,
      "ĠNeu": 2743,
      "Ġras": 2744,
      "ĠOhr": 2745,
      "ĠMittag": 2746,
      "ĠSep": 2747,
      "Ġglaubt": 2748,
      "Ġerscheinen": 2749,
      "ĠgrÃ¶ÃŁte": 2750,
      "Ġungehe": 2751,
      "ĠVertrauen": 2752,
      "ĠOktober": 2753,
      "Das": 2754,
      "Ġne": 2755,
      "arf": 2756,
      "ĠGlie": 2757,
      "aute": 2758,
      "Ġsowohl": 2759,
      "ĠFerne": 2760,
      "ĠHÃ¤us": 2761,
      "ĠVern": 2762,
      "hlen": 2763,
      "ĠUhr": 2764,
      "ĠSchne": 2765,
      "Ġgewinnen": 2766,
      "Ã¤tze": 2767,
      "Ġabge": 2768,
      "samkeit": 2769,
      "gessen": 2770,
      "ĠMannes": 2771,
      "Ġkeiner": 2772,
      "ĠPlan": 2773,
      "Ġedlen": 2774,
      "Ġbemerkte": 2775,
      "ĠGipfel": 2776,
      "ĠWirkung": 2777,
      "ĠLenard": 2778,
      "kel": 2779,
      "wert": 2780,
      "ĠDingen": 2781,
      "ĠTafel": 2782,
      "Ã¼rf": 2783,
      "ĠUnbe": 2784,
      "Ġober": 2785,
      "auspiel": 2786,
      "Ġwillst": 2787,
      "ĠMitte": 2788,
      "ĠGeschick": 2789,
      "ĠPflicht": 2790,
      "Ã¤chtig": 2791,
      "Ġallgemeinen": 2792,
      "Ġeinzelnen": 2793,
      "ĠGrÃ¤fin": 2794,
      "bes": 2795,
      "nÃ¤": 2796,
      "unehmen": 2797,
      "Ġnimmt": 2798,
      "arten": 2799,
      "ember": 2800,
      "schw": 2801,
      "ĠMo": 2802,
      "ĠTÃ¼r": 2803,
      "Ã¼ckte": 2804,
      "ros": 2805,
      "utzt": 2806,
      "ĠrÃ¼": 2807,
      "Ã¤tz": 2808,
      "ĠmÃ¶gen": 2809,
      "ĠReisen": 2810,
      "stÃ¤nden": 2811,
      "Ġerwider": 2812,
      "garete": 2813,
      "ĠPerson": 2814,
      "Ġeilte": 2815,
      "ĠFreiheit": 2816,
      "mÃ¶glich": 2817,
      "mÃ¤ÃŁig": 2818,
      "ĠSeptem": 2819,
      "for": 2820,
      "kehr": 2821,
      "mar": 2822,
      "res": 2823,
      "wesen": 2824,
      "Ġart": 2825,
      "Ġunten": 2826,
      "Ġunsch": 2827,
      "Ã¶mm": 2828,
      "ĠEx": 2829,
      "Ġsicher": 2830,
      "ĠHeute": 2831,
      "ĠverÃ¤n": 2832,
      "ĠUfer": 2833,
      "ĠPu": 2834,
      "ĠSchauspiel": 2835,
      "tritt": 2836,
      "Ġherbei": 2837,
      "oline": 2838,
      "leiÃŁ": 2839,
      "Ġkannst": 2840,
      "nisse": 2841,
      "ĠSchlaf": 2842,
      "Ġberuh": 2843,
      "ĠMond": 2844,
      "ĠBriefe": 2845,
      "ĠErnst": 2846,
      "Margarete": 2847,
      "ĠSeptember": 2848,
      "bung": 2849,
      "Ġmunter": 2850,
      "stande": 2851,
      "Ġheim": 2852,
      "Ġfein": 2853,
      "ĠHel": 2854,
      "ĠlÃ¶": 2855,
      "ĠTheater": 2856,
      "ĠZus": 2857,
      "olz": 2858,
      "Ġvieles": 2859,
      "Ġversamm": 2860,
      "ĠAufent": 2861,
      "uchten": 2862,
      "ĠGenuÃŁ": 2863,
      "Ġziehen": 2864,
      "Ġstille": 2865,
      "Ġstren": 2866,
      "ĠdÃ¼rfen": 2867,
      "Ġmensch": 2868,
      "ise": 2869,
      "nach": 2870,
      "pa": 2871,
      "richten": 2872,
      "Ġmann": 2873,
      "ĠhÃ¼b": 2874,
      "ĠzufÃ¤ll": 2875,
      "ĠWissen": 2876,
      "Ã¶h": 2877,
      "ĠMin": 2878,
      "ĠKon": 2879,
      "ĠKalk": 2880,
      "ĠLande": 2881,
      "Ġrau": 2882,
      "Ġuntersch": 2883,
      "Ġgesetzt": 2884,
      "Ġgesell": 2885,
      "ĠDass": 2886,
      "chtete": 2887,
      "druck": 2888,
      "Ã¤uft": 2889,
      "ĠSpiel": 2890,
      "Ġglauben": 2891,
      "Ġspricht": 2892,
      "ĠSchwester": 2893,
      "Ġlangsam": 2894,
      "Ġverdrie": 2895,
      "Ġerwarten": 2896,
      "ĠnÃ¤chsten": 2897,
      "ib": 2898,
      "Ġdro": 2899,
      "Ġdopp": 2900,
      "einst": 2901,
      "igste": 2902,
      "ĠBilder": 2903,
      "Ġgeblieben": 2904,
      "ĠFÃ¼hr": 2905,
      "ĠTeu": 2906,
      "ĠThal": 2907,
      "ĠChr": 2908,
      "Ġabgesch": 2909,
      "ĠGraf": 2910,
      "ĠgroÃŁes": 2911,
      "Ġpaar": 2912,
      "Ġdringen": 2913,
      "ĠHandwerk": 2914,
      "Ġgeheim": 2915,
      "ĠSpaz": 2916,
      "ĠVaters": 2917,
      "ĠFolge": 2918,
      "ĠWolken": 2919,
      "ĠAmtmann": 2920,
      "fre": 2921,
      "ĠDank": 2922,
      "ĠMÃ¤r": 2923,
      "ĠEben": 2924,
      "Ġdenke": 2925,
      "atze": 2926,
      "Ġstatt": 2927,
      "ĠDasein": 2928,
      "erecht": 2929,
      "scheinlich": 2930,
      "hafter": 2931,
      "Ġbemerkt": 2932,
      "ĠDieses": 2933,
      "ĠKaroline": 2934,
      "gten": 2935,
      "lungen": 2936,
      "oh": 2937,
      "ugend": 2938,
      "ĠmÃ¼ÃŁte": 2939,
      "Ġzeigt": 2940,
      "Ġeinigem": 2941,
      "ĠDinge": 2942,
      "ĠMal": 2943,
      "ĠMiÃŁ": 2944,
      "ĠFÃ¼ÃŁen": 2945,
      "Ġschuldig": 2946,
      "ĠIr": 2947,
      "ĠZug": 2948,
      "Ġvorher": 2949,
      "ĠtÃ¼cht": 2950,
      "ĠInter": 2951,
      "ĠgefÃ¤hr": 2952,
      "Ġjenem": 2953,
      "Ġgering": 2954,
      "Ã¤chst": 2955,
      "ĠBerge": 2956,
      "ĠvergnÃ¼": 2957,
      "ĠAbends": 2958,
      "ĠBedÃ¼rf": 2959,
      "jenigen": 2960,
      "Ġmeisten": 2961,
      "ĠHilar": 2962,
      "Ġunmittelbar": 2963,
      "ĠEindruck": 2964,
      "fft": 2965,
      "haber": 2966,
      "sst": 2967,
      "Ġehr": 2968,
      "ĠÃ¤ngst": 2969,
      "ende": 2970,
      "ĠSÃ¤ul": 2971,
      "ĠMu": 2972,
      "Ġsobald": 2973,
      "ĠUnge": 2974,
      "ĠErschein": 2975,
      "Ġliebt": 2976,
      "ĠFrage": 2977,
      "Ġgelassen": 2978,
      "ĠBlut": 2979,
      "Ġanderer": 2980,
      "ĠDenk": 2981,
      "ĠÃ¼bel": 2982,
      "ĠGottes": 2983,
      "ĠwÃ¤ren": 2984,
      "ĠnatÃ¼rlich": 2985,
      "ĠsÃ¤mt": 2986,
      "ĠKÃ¤stchen": 2987,
      "ĠJÃ¼ngling": 2988,
      "heil": 2989,
      "Ġhel": 2990,
      "igten": 2991,
      "lichkeiten": 2992,
      "ĠAlle": 2993,
      "ĠMeister": 2994,
      "Ġdenkt": 2995,
      "Ġwohin": 2996,
      "Ġwovon": 2997,
      "ĠPaar": 2998,
      "reis": 2999,
      "Ġnachdem": 3000,
      "ĠErf": 3001,
      "ĠtÃ¤glich": 3002,
      "Ã¼nf": 3003,
      "Ġhinunter": 3004,
      "ĠBlatt": 3005,
      "ĠArchite": 3006,
      "ĠNachricht": 3007,
      "Ġkeines": 3008,
      "Ġschienen": 3009,
      "ĠheiÃŁt": 3010,
      "Ġbetrachten": 3011,
      "ĠOttiliens": 3012,
      "Ġstark": 3013,
      "ĠFremden": 3014,
      "ĠBetrachtungen": 3015,
      "ĠAbschied": 3016,
      "ĠAufenthalt": 3017,
      "Un": 3018,
      "ym": 3019,
      "eres": 3020,
      "Ġsage": 3021,
      "Ã¼llen": 3022,
      "Ã¤chen": 3023,
      "Ġzeich": 3024,
      "ase": 3025,
      "arr": 3026,
      "arbei": 3027,
      "derte": 3028,
      "aub": 3029,
      "ĠHaar": 3030,
      "Ġschrei": 3031,
      "ĠTor": 3032,
      "ĠErzÃ¤hl": 3033,
      "Ġeher": 3034,
      "ĠGegenstand": 3035,
      "Ã¼tz": 3036,
      "ĠPferd": 3037,
      "ĠEltern": 3038,
      "Ġantwor": 3039,
      "ĠÃ¤lter": 3040,
      "ĠTeufel": 3041,
      "ac": 3042,
      "geist": 3043,
      "Ġdien": 3044,
      "Ã¼lle": 3045,
      "llung": 3046,
      "els": 3047,
      "elig": 3048,
      "one": 3049,
      "hle": 3050,
      "eus": 3051,
      "reift": 3052,
      "Ġgewahr": 3053,
      "Ġentb": 3054,
      "ĠlieÃŁen": 3055,
      "Ġfragen": 3056,
      "ĠGesang": 3057,
      "imml": 3058,
      "ĠschÃ¶nste": 3059,
      "Ġversicher": 3060,
      "ĠSchloÃŁ": 3061,
      "teilt": 3062,
      "Ġjedermann": 3063,
      "Ġverschiedenen": 3064,
      "ĠLotten": 3065,
      "ĠÃ¶f": 3066,
      "Ġversprach": 3067,
      "ĠGerichtsrat": 3068,
      "ĠMÃ¼he": 3069,
      "fÃ¼r": 3070,
      "ius": 3071,
      "uar": 3072,
      "eid": 3073,
      "ieÃŁ": 3074,
      "Ã¼te": 3075,
      "Ã¤ste": 3076,
      "Ġhell": 3077,
      "Ġhundert": 3078,
      "Ġbein": 3079,
      "ĠWald": 3080,
      "ĠAben": 3081,
      "gebracht": 3082,
      "reffen": 3083,
      "Ġvergeben": 3084,
      "Ġaufger": 3085,
      "ĠSchrei": 3086,
      "Ġalsdann": 3087,
      "ĠhinÃ¼ber": 3088,
      "Ġgesagt": 3089,
      "same": 3090,
      "ĠWeib": 3091,
      "Ġspiel": 3092,
      "ĠZweck": 3093,
      "Ġleidenschaft": 3094,
      "ĠsorgfÃ¤lt": 3095,
      "Ġerwiderte": 3096,
      "akt": 3097,
      "ens": 3098,
      "eier": 3099,
      "iefe": 3100,
      "Ã¼ler": 3101,
      "ĠGo": 3102,
      "ĠGute": 3103,
      "auber": 3104,
      "ĠKom": 3105,
      "zustellen": 3106,
      "Ġth": 3107,
      "Ġgewohnt": 3108,
      "Ġfrisch": 3109,
      "Ġwenigen": 3110,
      "Ġeigenen": 3111,
      "ĠFelix": 3112,
      "ĠBeste": 3113,
      "ĠbloÃŁ": 3114,
      "ĠÃ¼brige": 3115,
      "hafte": 3116,
      "Ġentfernt": 3117,
      "ĠWerke": 3118,
      "Ġverzei": 3119,
      "ĠGebirge": 3120,
      "ĠGanze": 3121,
      "ĠDienst": 3122,
      "aÃŁen": 3123,
      "bten": 3124,
      "kam": 3125,
      "sucht": 3126,
      "vollen": 3127,
      "was": 3128,
      "wenden": 3129,
      "enzen": 3130,
      "Ġsucht": 3131,
      "ĠmÃ¤ÃŁ": 3132,
      "Ã¼mm": 3133,
      "empel": 3134,
      "ĠDichter": 3135,
      "itÃ¤t": 3136,
      "alen": 3137,
      "bergen": 3138,
      "Ġlesen": 3139,
      "anne": 3140,
      "ierde": 3141,
      "ĠÃ¼berhaupt": 3142,
      "neten": 3143,
      "ĠAnmut": 3144,
      "angel": 3145,
      "ĠGesetz": 3146,
      "sah": 3147,
      "ĠGeschÃ¶pf": 3148,
      "achtete": 3149,
      "Ġverlieren": 3150,
      "Ã¼ssel": 3151,
      "Ġkomme": 3152,
      "Ã¼ÃŁe": 3153,
      "ĠGesinnungen": 3154,
      "ĠLenardo": 3155,
      "ĠSpazier": 3156,
      "haus": 3157,
      "mÃ¼t": 3158,
      "zur": 3159,
      "Ġach": 3160,
      "teuer": 3161,
      "Ġmachten": 3162,
      "Ã¼ten": 3163,
      "Ã¤re": 3164,
      "Ã¤ger": 3165,
      "Ġbun": 3166,
      "schn": 3167,
      "ĠDir": 3168,
      "ĠDort": 3169,
      "auten": 3170,
      "Ġwomit": 3171,
      "indungen": 3172,
      "weisen": 3173,
      "aÃŁte": 3174,
      "ĠGegenden": 3175,
      "ĠArmen": 3176,
      "Ġwollt": 3177,
      "ĠspÃ¤ter": 3178,
      "fahrt": 3179,
      "Ġeigent": 3180,
      "gefÃ¤hr": 3181,
      "ĠReihe": 3182,
      "Ġherrlichen": 3183,
      "ĠGestalten": 3184,
      "Ã¼lt": 3185,
      "Ġheiligen": 3186,
      "inks": 3187,
      "mÃ¶gen": 3188,
      "ĠEntfernung": 3189,
      "Ġmannigfalt": 3190,
      "ahm": 3191,
      "ruh": 3192,
      "ĠsaÃŁ": 3193,
      "ante": 3194,
      "Ġflie": 3195,
      "Ġinter": 3196,
      "ĠHÃ¤nden": 3197,
      "ĠTat": 3198,
      "ernt": 3199,
      "ĠvorwÃ¤rts": 3200,
      "ĠAnteil": 3201,
      "Ġgelten": 3202,
      "Ġklug": 3203,
      "innt": 3204,
      "drÃ¼cken": 3205,
      "Ġgeschrieben": 3206,
      ".\"--\"": 3207,
      "ĠLieben": 3208,
      "ĠGewohn": 3209,
      "euchtet": 3210,
      "Ġerscheint": 3211,
      "ĠOrte": 3212,
      "Ġherrlich": 3213,
      "ĠSchÃ¶nheit": 3214,
      "ĠElem": 3215,
      "ĠVerbindung": 3216,
      "ĠLiebhaber": 3217,
      "ĠEmpfindung": 3218,
      "Ġfremden": 3219,
      "Ġabends": 3220,
      "ĠGÃ¶tter": 3221,
      "ahe": 3222,
      "klei": 3223,
      "eien": 3224,
      "Ġwicht": 3225,
      "ĠSonn": 3226,
      "Ġvergessen": 3227,
      "ĠVom": 3228,
      "ĠTische": 3229,
      "euten": 3230,
      "samen": 3231,
      "ĠgemÃ¤ÃŁ": 3232,
      "wÃ¼rdige": 3233,
      "Ġworin": 3234,
      "ĠNebel": 3235,
      "Ġgewisser": 3236,
      "ĠPapier": 3237,
      "ĠKnabe": 3238,
      "ĠDiener": 3239,
      "ĠWarum": 3240,
      "ĠPhil": 3241,
      "ĠKÃ¶rper": 3242,
      "ĠAnfang": 3243,
      "ĠerklÃ¤ren": 3244,
      "ĠErinnerung": 3245,
      "Ġhelfen": 3246,
      "Ġinteress": 3247,
      "daÃŁ": 3248,
      "mo": 3249,
      "nes": 3250,
      "oÃŁen": 3251,
      "zig": 3252,
      "Ã©": 3253,
      "Ġei": 3254,
      "iet": 3255,
      "Ã¼m": 3256,
      "Ã¼ÃŁt": 3257,
      "Ġhimml": 3258,
      "ĠMauern": 3259,
      "ĠLam": 3260,
      "ĠZur": 3261,
      "Ġdeswegen": 3262,
      "ĠEins": 3263,
      "ĠSoll": 3264,
      "ĠMitt": 3265,
      "artier": 3266,
      "Ġbereit": 3267,
      "Ã¤umt": 3268,
      "Ġallerlei": 3269,
      "ĠkÃ¶nnten": 3270,
      "Ġaufgeh": 3271,
      "iebten": 3272,
      "iment": 3273,
      "Ġhoffe": 3274,
      "Ġwechselseit": 3275,
      "ĠWohnung": 3276,
      "zunehmen": 3277,
      "Ġ3": 3278,
      "ente": 3279,
      "ĠgÃ¼nst": 3280,
      "ĠSamm": 3281,
      "Ġbat": 3282,
      "schlieÃŁen": 3283,
      "ĠDein": 3284,
      "ĠfÃ¤llt": 3285,
      "ĠEp": 3286,
      "ĠkÃ¤": 3287,
      "ĠFehl": 3288,
      "ĠLauf": 3289,
      "ĠNov": 3290,
      "ument": 3291,
      "Ġbedenk": 3292,
      "Ġwobei": 3293,
      "trag": 3294,
      "eucht": 3295,
      "ffe": 3296,
      "Ġumgeben": 3297,
      "Ġrings": 3298,
      "ĠOheim": 3299,
      "ĠschÃ¶nes": 3300,
      "afft": 3301,
      "Ġehe": 3302,
      "ĠAlph": 3303,
      "quick": 3304,
      "Ġhohe": 3305,
      "ĠGeburt": 3306,
      "Ġfreien": 3307,
      "schlag": 3308,
      "Ã¼nscht": 3309,
      "Ġempfinden": 3310,
      "Ġzieht": 3311,
      "ĠBildung": 3312,
      "Ġbestimmt": 3313,
      "Ġgewiss": 3314,
      "Ġentwickeln": 3315,
      "ĠBemerk": 3316,
      "ĠFranzosen": 3317,
      "ĠUmgebung": 3318,
      "ĠverdrieÃŁ": 3319,
      ",\"": 3320,
      "fort": 3321,
      "kÃ¼r": 3322,
      "land": 3323,
      "ys": 3324,
      "zw": 3325,
      "Ġsetzen": 3326,
      "Ġwack": 3327,
      "anl": 3328,
      "ĠbÃ¶": 3329,
      "Ġbitte": 3330,
      "arden": 3331,
      "Ġdergestalt": 3332,
      "ĠWand": 3333,
      "schwei": 3334,
      "schauen": 3335,
      "ĠMÃ¶": 3336,
      "ĠPe": 3337,
      "ĠRh": 3338,
      "rot": 3339,
      "zubringen": 3340,
      "Ġreichen": 3341,
      "Ġents": 3342,
      "Ġsollst": 3343,
      "gesehen": 3344,
      "Ġwillkommen": 3345,
      "Ġpl": 3346,
      "Ġgutes": 3347,
      "Ġalter": 3348,
      "Ġlebt": 3349,
      "ĠEntschl": 3350,
      "Ġverborgen": 3351,
      "ĠKindern": 3352,
      "ĠVerwunderung": 3353,
      "ĠKammer": 3354,
      "unkte": 3355,
      "Ġallgemein": 3356,
      "ĠBlÃ¤tter": 3357,
      "ĠDorf": 3358,
      "ĠZusammen": 3359,
      "HE": 3360,
      "brechen": 3361,
      "kret": 3362,
      "lÃ¶": 3363,
      "wort": 3364,
      "Ġdank": 3365,
      "Ã¼ter": 3366,
      "ĠSzen": 3367,
      "ĠGunst": 3368,
      "ĠBau": 3369,
      "ĠBett": 3370,
      "urer": 3371,
      "Ġdasjenige": 3372,
      "Ġbeob": 3373,
      "ĠSchein": 3374,
      "ĠVerstand": 3375,
      "Ġdurchs": 3376,
      "Ġganzes": 3377,
      "ĠBedien": 3378,
      "Ġret": 3379,
      "Ã¼hle": 3380,
      "ĠEngel": 3381,
      "ĠgegenÃ¼ber": 3382,
      "Ġgeschwind": 3383,
      "ĠAlten": 3384,
      "ĠgehÃ¶r": 3385,
      "Ã¤ftig": 3386,
      "Ġverbunden": 3387,
      "dienst": 3388,
      "grÃ¼n": 3389,
      "ĠVerwirr": 3390,
      "ĠSchnee": 3391,
      "ĠSÃ¤ulen": 3392,
      "?âĢľ": 3393,
      "Der": 3394,
      "hÃ¶r": 3395,
      "ike": 3396,
      "offen": 3397,
      "ue": 3398,
      "Ġeinst": 3399,
      "Ġeiniges": 3400,
      "aren": 3401,
      "orben": 3402,
      "Ġfal": 3403,
      "ĠMaÃŁ": 3404,
      "Ġsowie": 3405,
      "Ġschreck": 3406,
      "Ġwozu": 3407,
      "ĠSchatten": 3408,
      "steht": 3409,
      "Ġhinweg": 3410,
      "ĠJun": 3411,
      "Ġentspr": 3412,
      "brauch": 3413,
      "Ġgelangt": 3414,
      "uchs": 3415,
      "Ġpro": 3416,
      "Ġzweiten": 3417,
      "ĠTeilnahme": 3418,
      "Ġbewegen": 3419,
      "ĠfÃ¼hrt": 3420,
      "ĠZustande": 3421,
      "ĠNichts": 3422,
      "Ġfroh": 3423,
      "ĠTalent": 3424,
      "ĠLotte": 3425,
      "ĠSaal": 3426,
      "ĠvorzÃ¼glich": 3427,
      "ĠUrsache": 3428,
      "IL": 3429,
      "LM": 3430,
      "bein": 3431,
      "finden": 3432,
      "hung": 3433,
      "uv": 3434,
      "Ġstet": 3435,
      "Ġsitt": 3436,
      "Ġunb": 3437,
      "ĠnÃ¼t": 3438,
      "ĠSat": 3439,
      "asen": 3440,
      "arren": 3441,
      "ĠWIL": 3442,
      "lichem": 3443,
      "aup": 3444,
      "ĠMart": 3445,
      "Ġgezogen": 3446,
      "Ġlinks": 3447,
      "Ġvernahm": 3448,
      "Ġscheiden": 3449,
      "ĠVier": 3450,
      "annten": 3451,
      "Ġbey": 3452,
      "ĠZeug": 3453,
      "ĠSchn": 3454,
      "osse": 3455,
      "ĠZeitlang": 3456,
      "ĠTraum": 3457,
      "ĠHerren": 3458,
      "ĠÃĸ": 3459,
      "Ã¼sse": 3460,
      "schlagen": 3461,
      "Ġglaube": 3462,
      "ohlen": 3463,
      "ehme": 3464,
      "quemlichkeit": 3465,
      "Ġunerwar": 3466,
      "Ġfehlt": 3467,
      "ĠKreise": 3468,
      "Ġbewegt": 3469,
      "Ġferner": 3470,
      "Ġbeinahe": 3471,
      "ĠAlphons": 3472,
      "HELM": 3473,
      "ĠWILHELM": 3474,
      "AB": 3475,
      "CE": 3476,
      "bilden": 3477,
      "ka": 3478,
      "treff": 3479,
      "wollen": 3480,
      "ichen": 3481,
      "ĠunmÃ¶glich": 3482,
      "Ã¼ste": 3483,
      "ĠMund": 3484,
      "decken": 3485,
      "ĠFalle": 3486,
      "ĠFAB": 3487,
      "Ġschmer": 3488,
      "ĠVene": 3489,
      "ĠRÃ¼cken": 3490,
      "ĠUnser": 3491,
      "Ġnachher": 3492,
      "dringen": 3493,
      "ĠmuÃŁten": 3494,
      "samm": 3495,
      "ĠLied": 3496,
      "ĠKrÃ¤fte": 3497,
      "ĠEduarden": 3498,
      "Ġblick": 3499,
      "ĠGemÃ¤l": 3500,
      "Ġbehaup": 3501,
      "Ġbetro": 3502,
      "ĠGanzen": 3503,
      "ĠFremde": 3504,
      "Ġjemand": 3505,
      "RICE": 3506,
      "ĠFarben": 3507,
      "Ġkenne": 3508,
      "Ġversicherte": 3509,
      "ĠFABRICE": 3510,
      "AN": 3511,
      "ARI": 3512,
      "NE": 3513,
      "od": 3514,
      "swert": 3515,
      "ichtete": 3516,
      "Ġbillig": 3517,
      "ĠWink": 3518,
      "aulich": 3519,
      "ĠMerk": 3520,
      "ĠMARI": 3521,
      "urg": 3522,
      "ĠFer": 3523,
      "ĠKein": 3524,
      "ĠKut": 3525,
      "ĠKaum": 3526,
      "ĠTempel": 3527,
      "eiche": 3528,
      "annte": 3529,
      "ĠSchuld": 3530,
      "ĠjÃ¼n": 3531,
      "ĠÃ¼berl": 3532,
      "ĠÃ¼berlie": 3533,
      "anzÃ¶s": 3534,
      "ĠSteine": 3535,
      "Ġgelangen": 3536,
      "ĠhÃ¶rt": 3537,
      "ĠGeistes": 3538,
      "ĠnÃ¤mlich": 3539,
      "ĠBeispiel": 3540,
      "ĠÃľbel": 3541,
      "Ġherrliche": 3542,
      "Ġeilig": 3543,
      "ĠhieÃŁ": 3544,
      "ĠWahrheit": 3545,
      "ĠDame": 3546,
      "ĠKriegs": 3547,
      "ĠPalast": 3548,
      "Ġmusste": 3549,
      "ĠHalb": 3550,
      "ANNE": 3551,
      "ĠMARIANNE": 3552,
      "fach": 3553,
      "gst": 3554,
      "gabe": 3555,
      "lein": 3556,
      "willen": 3557,
      "zten": 3558,
      "zwischen": 3559,
      "Ġdunk": 3560,
      "Ġdurfte": 3561,
      "Ã¼bt": 3562,
      "statt": 3563,
      "ĠMasse": 3564,
      "ĠBald": 3565,
      "ĠBÃ¤ume": 3566,
      "Ġlass": 3567,
      "Ġvernehmen": 3568,
      "ĠKam": 3569,
      "Ġdamals": 3570,
      "ĠVielleicht": 3571,
      "ĠZiel": 3572,
      "ĠPart": 3573,
      "ĠSchwei": 3574,
      "Ġhabt": 3575,
      "ĠErd": 3576,
      "ĠJul": 3577,
      "Ġentschl": 3578,
      "Ġgesprochen": 3579,
      "Ġweiten": 3580,
      "Ã¤rm": 3581,
      "Ġverlang": 3582,
      "ĠspÃ¤t": 3583,
      "ĠKlein": 3584,
      "Ġwunderbar": 3585,
      "Ġeinzeln": 3586,
      "Ġerstenmal": 3587,
      "Ġergriff": 3588,
      "ĠVerlegenheit": 3589,
      "Ġinnern": 3590,
      "ĠBeding": 3591,
      "ĠFamilien": 3592,
      "ĠFÃ¼hrer": 3593,
      "freund": 3594,
      "Und": 3595,
      "arbeitet": 3596,
      "haben": 3597,
      "leben": 3598,
      "lÃ¤ss": 3599,
      "Ġc": 3600,
      "erer": 3601,
      "Ã¼mmer": 3602,
      "Ã¼ht": 3603,
      "stÃ¼ck": 3604,
      "ĠzÃ¤rt": 3605,
      "ĠGlau": 3606,
      "geht": 3607,
      "deten": 3608,
      "ĠFle": 3609,
      "ĠFurcht": 3610,
      "Ġverbergen": 3611,
      "ĠKer": 3612,
      "ĠschÃ¤tzen": 3613,
      "Ġtreten": 3614,
      "ĠgewÃ¤hr": 3615,
      "ĠJetzt": 3616,
      "Ġenthalten": 3617,
      "bleiben": 3618,
      "ĠtrÃ¤gt": 3619,
      "ult": 3620,
      "Ġversp": 3621,
      "Ġseid": 3622,
      "ĠgefÃ¤ll": 3623,
      "selbe": 3624,
      "ĠAlter": 3625,
      "ĠwÃ¼rdig": 3626,
      "ĠJahrh": 3627,
      "Ã¼ssen": 3628,
      "ĠFlÃ¼gel": 3629,
      "ĠglÃ¼cklichen": 3630,
      "Ġgebildet": 3631,
      "Ġempfangen": 3632,
      "ĠKapelle": 3633,
      "ĠwÃ¼nsche": 3634,
      "Ġentfernen": 3635,
      "Ġgestehen": 3636,
      "ĠÃ¼berzeugt": 3637,
      "kretÃ¤r": 3638,
      "Du": 3639,
      "Ã¼f": 3640,
      "ĠSorg": 3641,
      "ĠGang": 3642,
      "ĠAcht": 3643,
      "ĠfÃ¼": 3644,
      "denke": 3645,
      "ĠEi": 3646,
      "recken": 3647,
      "Ġverein": 3648,
      "ĠLaÃŁ": 3649,
      "ĠPaler": 3650,
      "ĠPost": 3651,
      "Ġherzlich": 3652,
      "ĠStÃ¤d": 3653,
      "ĠOb": 3654,
      "Ã¤tte": 3655,
      "Ġtrug": 3656,
      "ĠfranzÃ¶s": 3657,
      "Ġanderes": 3658,
      "ĠhÃ¶chste": 3659,
      "ĠStellung": 3660,
      "Ġwunderliche": 3661,
      "fluÃŁ": 3662,
      "Ġwahrscheinlich": 3663,
      "Ġgetrieben": 3664,
      "ĠGlas": 3665,
      "ĠEhre": 3666,
      "Ġeignen": 3667,
      "ĠLucid": 3668,
      "rÃ¤nkt": 3669,
      "ĠFrieder": 3670,
      "ĠGewohnheit": 3671,
      "ĠVerwirrung": 3672,
      "?--": 3673,
      "gÃ¼lt": 3674,
      "ling": 3675,
      "nitten": 3676,
      "seite": 3677,
      "erb": 3678,
      "eiste": 3679,
      "eibt": 3680,
      "ino": 3681,
      "Ã¤ten": 3682,
      "urz": 3683,
      "ckte": 3684,
      "Ġverr": 3685,
      "Ġsiehst": 3686,
      "ĠViel": 3687,
      "reisen": 3688,
      "ĠstÃ¤r": 3689,
      "Ġsollt": 3690,
      "ĠFrÃ¼": 3691,
      "weis": 3692,
      "gelegt": 3693,
      "Ġgeschieht": 3694,
      "ĠgefÃ¼hrt": 3695,
      "ĠAlte": 3696,
      "ĠmÃ¶ge": 3697,
      "ĠSekretÃ¤r": 3698,
      "Ġalt": 3699,
      "ĠStraÃŁen": 3700,
      "Ġbefrie": 3701,
      "werke": 3702,
      "ĠgegenwÃ¤rtigen": 3703,
      "Ġsonderbar": 3704,
      "ĠGutes": 3705,
      "wohner": 3706,
      "ĠliebenswÃ¼rdig": 3707,
      "deutung": 3708,
      "ĠLippen": 3709,
      "ĠWinter": 3710,
      "Ġunterscheiden": 3711,
      "ĠPalermo": 3712,
      "das": 3713,
      "dlichen": 3714,
      "hÃ¶": 3715,
      "mor": 3716,
      "uf": 3717,
      "uft": 3718,
      "enk": 3719,
      "Ġwillen": 3720,
      "asst": 3721,
      "ordert": 3722,
      "ĠAhn": 3723,
      "ĠfÃ¶r": 3724,
      "aufen": 3725,
      "Ġgebe": 3726,
      "ĠlaÃŁ": 3727,
      "Ġdemselben": 3728,
      "reite": 3729,
      "ĠStand": 3730,
      "Ġtot": 3731,
      "ĠrÃ¶m": 3732,
      "ĠFrank": 3733,
      "endes": 3734,
      "Ġgesehn": 3735,
      "ĠgenÃ¶t": 3736,
      "geln": 3737,
      "ĠIns": 3738,
      "Ġgeschah": 3739,
      "fehl": 3740,
      "ĠEntz": 3741,
      "klÃ¤rt": 3742,
      "ika": 3743,
      "ĠTischbein": 3744,
      "ĠSchmerzen": 3745,
      "ĠFÃ¼rstin": 3746,
      "ĠAnstalt": 3747,
      "Ġgegangen": 3748,
      "ĠVorsatz": 3749,
      "ĠWelch": 3750,
      "ĠverÃ¤ndert": 3751,
      "ĠsorgfÃ¤ltig": 3752,
      "',": 3753,
      "gab": 3754,
      "kÃ¶mm": 3755,
      "no": 3756,
      "unken": 3757,
      "Ġabl": 3758,
      "Ġunangen": 3759,
      "inder": 3760,
      "Ġzogen": 3761,
      "ĠSeine": 3762,
      "Ġeinger": 3763,
      "orfen": 3764,
      "Ġfallen": 3765,
      "ĠMacht": 3766,
      "ĠBette": 3767,
      "Ġdenk": 3768,
      "ĠHÃ¼lfe": 3769,
      "Ġlasse": 3770,
      "Ġverlie": 3771,
      "ĠLehr": 3772,
      "ĠLav": 3773,
      "see": 3774,
      "Ġwarf": 3775,
      "ĠVerdr": 3776,
      "ĠStir": 3777,
      "Ġbesitzen": 3778,
      "Ġbesuchen": 3779,
      "blik": 3780,
      "inger": 3781,
      "Ġgleicher": 3782,
      "ĠĠĠĠĠĠĠĠĠĠĠĠĠĠĠĠĠĠĠĠĠĠĠĠĠĠĠĠĠĠĠĠ": 3783,
      "ĠGeschmack": 3784,
      "ĠmÃ¶chten": 3785,
      "ĠReden": 3786,
      "ĠBesonder": 3787,
      "ĠStellen": 3788,
      "ĠSchÃ¶nen": 3789,
      "ĠHerzens": 3790,
      "Ġverdient": 3791,
      "Ġbedeutenden": 3792,
      "ĠVerlangen": 3793,
      "ĠÃ¤uÃŁern": 3794,
      "ĠArbeiten": 3795,
      "icherheit": 3796,
      "Ġseyn": 3797,
      "Ġheftig": 3798,
      "ĠzufÃ¤llig": 3799,
      "Ġkeineswegs": 3800,
      "ĠungefÃ¤hr": 3801,
      "ĠmiÃŁ": 3802,
      "ĠSter": 3803,
      "Ġaugen": 3804,
      "ĠWall": 3805,
      "ĠApr": 3806,
      "ĠfleiÃŁ": 3807,
      "iter": 3808,
      "ĠKell": 3809,
      "Ġaufgenommen": 3810,
      "hnt": 3811,
      "ĠTre": 3812,
      "ehrung": 3813,
      "ĠRelig": 3814,
      "ĠAug": 3815,
      "Ġausgeb": 3816,
      "ilien": 3817,
      "reitet": 3818,
      "ame": 3819,
      "Ġums": 3820,
      "ĠEinz": 3821,
      "Ġgenannt": 3822,
      "Ġfrucht": 3823,
      "Ġwenden": 3824,
      "licherweise": 3825,
      "ĠSehn": 3826,
      "Ġverlangt": 3827,
      "ĠbegÃ¼nst": 3828,
      "ĠAusdruck": 3829,
      "Ġrechts": 3830,
      "Ġhalte": 3831,
      "Ġgerne": 3832,
      "grunde": 3833,
      "ĠergÃ¶t": 3834,
      "ĠLeb": 3835,
      "ĠJulie": 3836,
      "ĠwÃ¼nscht": 3837,
      "ĠerzÃ¤hlte": 3838,
      "ĠAnlaÃŁ": 3839,
      "Ġjemals": 3840,
      "Ġbekennen": 3841,
      "Ġschmeich": 3842,
      "ĠInteresse": 3843,
      "ĠErscheinung": 3844,
      "Ġstets": 3845,
      "ĠVenedig": 3846,
      "duldig": 3847,
      "heus": 3848,
      "kung": 3849,
      "lern": 3850,
      "mitt": 3851,
      "pon": 3852,
      "uche": 3853,
      "yer": 3854,
      "zog": 3855,
      "Ġzart": 3856,
      "Ġhil": 3857,
      "ĠSind": 3858,
      "ĠGÃ¤ste": 3859,
      "ĠMom": 3860,
      "ĠErei": 3861,
      "reden": 3862,
      "Ġangef": 3863,
      "ĠLager": 3864,
      "ĠSchatz": 3865,
      "ĠSchÃ¼ler": 3866,
      "enne": 3867,
      "Ġvortreff": 3868,
      "ischt": 3869,
      "ĠherÃ¼ber": 3870,
      "ĠVermÃ¶gen": 3871,
      "Ã¼nden": 3872,
      "ĠFrucht": 3873,
      "Ġgenossen": 3874,
      "Ġkannte": 3875,
      "Ġimmerfort": 3876,
      "ĠGrab": 3877,
      "Ġwenige": 3878,
      "ĠManne": 3879,
      "ĠAlt": 3880,
      "ĠSchlÃ¼ssel": 3881,
      "Ġallenfalls": 3882,
      "Ġgebaut": 3883,
      "ĠGemahl": 3884,
      "Ġbetrachtet": 3885,
      "ĠMeinung": 3886,
      "Ġirgendeine": 3887,
      "ĠÃ¤uÃŁer": 3888,
      "ĠForm": 3889,
      "Ġvergebens": 3890,
      "Ġretten": 3891,
      "ĠApril": 3892,
      "ĠEreig": 3893,
      "asten": 3894,
      "abr": 3895,
      "bo": 3896,
      "hang": 3897,
      "opf": 3898,
      "ockt": 3899,
      "ĠÃ¤lt": 3900,
      "iebte": 3901,
      "essel": 3902,
      "ĠmÃ¤cht": 3903,
      "Ã¤m": 3904,
      "Ġzug": 3905,
      "ĠGatt": 3906,
      "ĠWahl": 3907,
      "Ġerm": 3908,
      "Ġkn": 3909,
      "ĠFort": 3910,
      "ĠRo": 3911,
      "ĠRuh": 3912,
      "agd": 3913,
      "ĠÃ¼berlassen": 3914,
      "ĠVersch": 3915,
      "Ġhingegen": 3916,
      "ĠAndenken": 3917,
      "ĠBew": 3918,
      "Ġvieler": 3919,
      "barkeit": 3920,
      "Ġgleichen": 3921,
      "ĠGrunde": 3922,
      "lecht": 3923,
      "Ġbeschwer": 3924,
      "Ġbegreifen": 3925,
      "ĠZufall": 3926,
      "ĠwÃ¤hr": 3927,
      "Ġgemein": 3928,
      "Ġverwir": 3929,
      "gebir": 3930,
      "ĠEntsch": 3931,
      "Ġvermag": 3932,
      "ĠTeile": 3933,
      "zÃ¼ge": 3934,
      "Ġfehlen": 3935,
      "Ġhoffte": 3936,
      "Ġbewegte": 3937,
      "ĠEhren": 3938,
      "Ġverfol": 3939,
      "Ġbegegnen": 3940,
      "ĠSchritte": 3941,
      "ĠHÃ¤user": 3942,
      "ĠSorgfalt": 3943,
      "ĠgenÃ¶tigt": 3944,
      "Was": 3945,
      "fert": 3946,
      "iken": 3947,
      "kunst": 3948,
      "mes": 3949,
      "oster": 3950,
      "suchen": 3951,
      "yros": 3952,
      "andern": 3953,
      "Ã¤mm": 3954,
      "ĠSol": 3955,
      "elbst": 3956,
      "ĠGÃ¶tt": 3957,
      "ĠWÃ¤r": 3958,
      "ĠWÃ¼nschen": 3959,
      "ĠDich": 3960,
      "gekommen": 3961,
      "ĠBlei": 3962,
      "Ġget": 3963,
      "Ġansehn": 3964,
      "ĠschlieÃŁen": 3965,
      "ĠTÃ¶n": 3966,
      "Ġbekannten": 3967,
      "ĠZerst": 3968,
      "ĠScherz": 3969,
      "ĠRes": 3970,
      "ĠUnheil": 3971,
      "ildern": 3972,
      "ildete": 3973,
      "Ġnachzu": 3974,
      "ĠVerd": 3975,
      "Ġhinten": 3976,
      "ĠFrÃ¼h": 3977,
      "Ġunterr": 3978,
      "ĠBekannt": 3979,
      "Ã¤rten": 3980,
      "erech": 3981,
      "Ã¼hlt": 3982,
      "Ġgeschlossen": 3983,
      "Ġkonnt": 3984,
      "Ġbescheiden": 3985,
      "ĠdrÃ¼ckte": 3986,
      "ĠFreundes": 3987,
      "ĠFreundschaft": 3988,
      "Ġbereitet": 3989,
      "Ã¶ÃŁe": 3990,
      "Ã¼nsche": 3991,
      "ĠMai": 3992,
      "Ġeinzige": 3993,
      "Ġschlug": 3994,
      "Ã¼ÃŁten": 3995,
      "wÃ¼rdigen": 3996,
      "Ġleise": 3997,
      "Ġallgemeine": 3998,
      "ĠÃ¼brigens": 3999,
      "friedenheit": 4000,
      "Ġschlecht": 4001,
      "Ġunglaub": 4002,
      "hof": 4003,
      "ĠBedÃ¼rfnis": 4004,
      "ĠNovember": 4005,
      "ĠverdrieÃŁlich": 4006,
      "ĠFriederike": 4007,
      "heben": 4008,
      "mus": 4009,
      "reichen": 4010,
      "vort": 4011,
      "enkt": 4012,
      "anten": 4013,
      "Ã¤s": 4014,
      "ĠSicherheit": 4015,
      "llten": 4016,
      "ond": 4017,
      "Ġsoviel": 4018,
      "ĠHa": 4019,
      "ĠlÃ¤ngst": 4020,
      "Ġlegte": 4021,
      "Ġverdien": 4022,
      "Ġschaffen": 4023,
      "ĠTier": 4024,
      "Ġmitten": 4025,
      "Ġausgest": 4026,
      "zugehen": 4027,
      "ĠSommer": 4028,
      "Ġbrav": 4029,
      "ĠbeschÃ¤": 4030,
      "euchten": 4031,
      "wechs": 4032,
      "Ġgeboren": 4033,
      "ĠGeister": 4034,
      "Ġwunderlich": 4035,
      "ĠBeifall": 4036,
      "aune": 4037,
      "Ġbedeutende": 4038,
      "ĠHoffnungen": 4039,
      "Ġunertr": 4040,
      "Ġkleiner": 4041,
      "ĠNotwend": 4042,
      "Ġerinnern": 4043,
      "ĠHindern": 4044,
      "ĠFÃ¤llen": 4045,
      "Ġerreichen": 4046,
      "Ġbegleitet": 4047,
      "Ġjunger": 4048,
      "ĠÃ¶ffent": 4049,
      "kommt": 4050,
      "ĠFiguren": 4051,
      "Ġausgesprochen": 4052,
      "ĠsÃ¤mtlichen": 4053,
      "ĠMartin": 4054,
      "ĠLucidor": 4055,
      "ĠGattin": 4056,
      "hand": 4057,
      "ip": 4058,
      "Ġel": 4059,
      "standen": 4060,
      "ĠhÃ¤us": 4061,
      "ĠWach": 4062,
      "Ġfahren": 4063,
      "ause": 4064,
      "ĠMaul": 4065,
      "ĠkÃ¼nst": 4066,
      "ĠHast": 4067,
      "Ġdaselbst": 4068,
      "Ġaufgef": 4069,
      "etten": 4070,
      "Ã¼rzt": 4071,
      "Ġbezeich": 4072,
      "ehrten": 4073,
      "Ġricht": 4074,
      "Ġreinen": 4075,
      "leiten": 4076,
      "liebe": 4077,
      "ĠIndem": 4078,
      "Ġbreit": 4079,
      "ĠĠĠĠĠĠĠĠĠĠĠĠĠĠĠĠĠĠĠĠĠĠĠ": 4080,
      "ĠWeiber": 4081,
      "ĠStrom": 4082,
      "Ġerfuhr": 4083,
      "ĠGedanke": 4084,
      "Ġsprang": 4085,
      "ĠZustÃ¤nde": 4086,
      "ĠPrÃ¼f": 4087,
      "holen": 4088,
      "Ġedle": 4089,
      "Ġbedeutend": 4090,
      "ĠGebirg": 4091,
      "Ġverschiedene": 4092,
      "ĠmerkwÃ¼rdig": 4093,
      "ĠWerther": 4094,
      "ĠVerzei": 4095,
      "ĠJeder": 4096,
      "ĠkÃ¼nftig": 4097,
      "ĠHelden": 4098,
      "ĠMÃ¤rz": 4099,
      "Ġantwortete": 4100,
      "ĠEinsied": 4101,
      "ĠGemÃ¤lde": 4102,
      "Ġaugenblick": 4103,
      "Wie": 4104,
      "gliche": 4105,
      "kar": 4106,
      "kÃ¼n": 4107,
      "Ġ*": 4108,
      "Ġpf": 4109,
      "Ġsetzt": 4110,
      "undern": 4111,
      "Ġahn": 4112,
      "Ã¤te": 4113,
      "Ã¤ften": 4114,
      "Ġzun": 4115,
      "Ġzau": 4116,
      "ĠMaler": 4117,
      "ĠEm": 4118,
      "ĠLÃ¤ch": 4119,
      "ĠLast": 4120,
      "ĠLass": 4121,
      "ĠTante": 4122,
      "ĠZw": 4123,
      "ĠRÃ¶": 4124,
      "Ġauseinander": 4125,
      "ĠÃ¼bers": 4126,
      "ĠrÃ¼hr": 4127,
      "Ġsteigt": 4128,
      "ĠEinige": 4129,
      "ĠFragen": 4130,
      "Ġmehreren": 4131,
      "ĠFluÃŁ": 4132,
      "Ġbefest": 4133,
      "ĠGenug": 4134,
      "Ġfolgte": 4135,
      "ĠMarmor": 4136,
      "Ġangekommen": 4137,
      "ĠKapit": 4138,
      "ĠflÃ¼cht": 4139,
      "Ġruhen": 4140,
      "Ġbegegnet": 4141,
      "Ġpflegt": 4142,
      "Ġerblickte": 4143,
      "Ġeinfach": 4144,
      "ĠZeichnung": 4145,
      "ĠKniep": 4146,
      "ĠWÃ¼rde": 4147,
      "Ġentbehren": 4148,
      "ĠSammlung": 4149,
      "ĠFehler": 4150,
      "freu": 4151,
      "gung": 4152,
      "kan": 4153,
      "lÃ¤uf": 4154,
      "off": 4155,
      "tÃ¤t": 4156,
      "vater": 4157,
      "Ġgold": 4158,
      "ĠgÃ¶tt": 4159,
      "Ã¤mmer": 4160,
      "ĠSold": 4161,
      "Ġblau": 4162,
      "ĠGold": 4163,
      "ĠGabe": 4164,
      "ĠauÃŁen": 4165,
      "schreiben": 4166,
      "ĠAd": 4167,
      "Ġfind": 4168,
      "ĠfÃ¼nf": 4169,
      "denkt": 4170,
      "ĠHab": 4171,
      "bereitet": 4172,
      "rech": 4173,
      "reckt": 4174,
      "ĠVoll": 4175,
      "ĠIde": 4176,
      "Ġbeur": 4177,
      "ĠPunkte": 4178,
      "trat": 4179,
      "trauen": 4180,
      "Ã¤ndig": 4181,
      "utig": 4182,
      "egten": 4183,
      "olit": 4184,
      "Ġtad": 4185,
      "ĠAnkunft": 4186,
      "ĠEinen": 4187,
      "âĢĶ": 4188,
      "ĠInn": 4189,
      "Ġwendete": 4190,
      "dring": 4191,
      "ĠgefaÃŁt": 4192,
      "Ġstellen": 4193,
      "Ġneuer": 4194,
      "ĠRechte": 4195,
      "ĠGewiÃŁ": 4196,
      "ĠAbreise": 4197,
      "ĠSpur": 4198,
      "ĠTags": 4199,
      "Ġfreier": 4200,
      "ĠheiÃŁ": 4201,
      "ĠPlatze": 4202,
      "ĠnÃ¤hern": 4203,
      "ĠGener": 4204,
      "amme": 4205,
      "zieht": 4206,
      "Ġwahre": 4207,
      "fÃ¼hrung": 4208,
      "Ġbestimm": 4209,
      "wirken": 4210,
      "zeugung": 4211,
      "ĠBehagen": 4212,
      "metheus": 4213,
      "arbeiten": 4214,
      "Ġleichter": 4215,
      "ĠMagister": 4216,
      "Ġlustig": 4217,
      "ĠGlieder": 4218,
      "Ġheimlich": 4219,
      "ĠIrrt": 4220,
      "ĠSzene": 4221,
      "ĠReligion": 4222,
      "abst": 4223,
      "ps": 4224,
      "sy": 4225,
      "ub": 4226,
      "wenn": 4227,
      "Ġte": 4228,
      "eser": 4229,
      "Ġgaben": 4230,
      "steigen": 4231,
      "ĠGatten": 4232,
      "ĠWeil": 4233,
      "ĠAp": 4234,
      "ĠEh": 4235,
      "altet": 4236,
      "Ġleug": 4237,
      "Ġveranl": 4238,
      "atur": 4239,
      "ĠKann": 4240,
      "ettet": 4241,
      "ĠTugend": 4242,
      "Ġbedien": 4243,
      "ĠZwischen": 4244,
      "ierig": 4245,
      "andte": 4246,
      "Ġdesselben": 4247,
      "Ã¶nnt": 4248,
      "Ġdiesel": 4249,
      "ĠJagd": 4250,
      "ĠfÃ¼rchten": 4251,
      "Ġgesp": 4252,
      "gelassen": 4253,
      "Ġgelegt": 4254,
      "uster": 4255,
      "ĠmÃ¶cht": 4256,
      "ĠzurÃ¼ckzu": 4257,
      "eignet": 4258,
      "ĠdrÃ¤ngt": 4259,
      "ĠSpiegel": 4260,
      "ĠSchlosse": 4261,
      "ĠVaterland": 4262,
      "ĠheiÃŁen": 4263,
      "ankheit": 4264,
      "Ġwunderlichen": 4265,
      "ĠWeh": 4266,
      "Ġempfand": 4267,
      "ĠOrten": 4268,
      "ĠMontan": 4269,
      "Ġanzusehen": 4270,
      "Ġbehag": 4271,
      "Ġruhigen": 4272,
      "Ġgedachte": 4273,
      "ĠKirchen": 4274,
      "Ġinnere": 4275,
      "ĠHex": 4276,
      "ĠZweifel": 4277,
      "ĠauÃŁerorden": 4278,
      "ĠHeiligen": 4279,
      "Ġwiederholt": 4280,
      "Ġeinzelne": 4281,
      "ĠArchitekt": 4282,
      "ĠEntschluÃŁ": 4283,
      "din": 4284,
      "sl": 4285,
      "Ġch": 4286,
      "enz": 4287,
      "erv": 4288,
      "ĠWÃ¼nsche": 4289,
      "Ġers": 4290,
      "Ġerquick": 4291,
      "ĠMor": 4292,
      "Ġindes": 4293,
      "ĠEw": 4294,
      "ĠBand": 4295,
      "ĠBÃ¼rger": 4296,
      "ĠBrot": 4297,
      "Ġlaut": 4298,
      "Ġangeb": 4299,
      "atter": 4300,
      "ĠNorden": 4301,
      "Ġbedeckt": 4302,
      "Ġtiefen": 4303,
      "necht": 4304,
      "Ġentdecken": 4305,
      "Ġuntern": 4306,
      "ĠBequemlichkeit": 4307,
      "Ġversich": 4308,
      "Ġgeschw": 4309,
      "ĠmuÃŁt": 4310,
      "ĠWeltgeist": 4311,
      "Ġverschaffen": 4312,
      "ĠZukunft": 4313,
      "ĠGebÃ¤r": 4314,
      "aunt": 4315,
      "Ġlebhafter": 4316,
      "ĠgewÃ¶hnlichen": 4317,
      "ĠHeft": 4318,
      "umente": 4319,
      "ĠRegiment": 4320,
      "ĠFarbe": 4321,
      "ĠBÃ¼ch": 4322,
      "Ġnotwendig": 4323,
      "Ġdoppelt": 4324,
      "ĠÃ¶fters": 4325,
      "ĠgewissermaÃŁen": 4326,
      "ĠSatyros": 4327,
      "Wenn": 4328,
      "acken": 4329,
      "ebte": 4330,
      "iÃŁt": 4331,
      "Ġsicht": 4332,
      "ese": 4333,
      "Ġunend": 4334,
      "Ġmind": 4335,
      "Ã¤ck": 4336,
      "ĠSei": 4337,
      "ĠGÃ¼ter": 4338,
      "ora": 4339,
      "irgend": 4340,
      "ĠWonne": 4341,
      "geh": 4342,
      "gezogen": 4343,
      "Ġkennt": 4344,
      "ĠFahrt": 4345,
      "ĠHoch": 4346,
      "ĠHals": 4347,
      "Ġlagen": 4348,
      "atte": 4349,
      "Ġauffallen": 4350,
      "ĠTreu": 4351,
      "Ġmitt": 4352,
      "ĠPer": 4353,
      "ĠSchwe": 4354,
      "ĠUnsch": 4355,
      "steh": 4356,
      "ĠErw": 4357,
      "ĠStille": 4358,
      "Ġgewonnen": 4359,
      "Ġtreibt": 4360,
      "liegen": 4361,
      "ĠgleichgÃ¼lt": 4362,
      "eignen": 4363,
      ".\"--": 4364,
      "ĠhÃ¶re": 4365,
      "ĠSpei": 4366,
      "ĠUmstÃ¤nden": 4367,
      "ĠFlÃ¤che": 4368,
      "ĠStreit": 4369,
      "Ġzweite": 4370,
      "ĠGeduld": 4371,
      "ĠerwÃ¤": 4372,
      "ĠLandschaft": 4373,
      "Ġreizen": 4374,
      "Ġreizend": 4375,
      "ĠTode": 4376,
      "Ġedel": 4377,
      "Ġungeduldig": 4378,
      "ĠPrometheus": 4379,
      "ĠFuÃŁe": 4380,
      "ĠStufen": 4381,
      "Ġfehlte": 4382,
      "ĠnÃ¤chste": 4383,
      "ĠParad": 4384,
      "Ġerreicht": 4385,
      "ĠNachbarschaft": 4386,
      "Ġerregt": 4387,
      "ĠkÃ¼hn": 4388,
      "ĠFeder": 4389,
      "Ġspielen": 4390,
      "ĠSonntag": 4391,
      "ĠMittler": 4392,
      "ĠJuni": 4393,
      "Ġverlangte": 4394,
      "..": 4395,
      "Mart": 4396,
      "gern": 4397,
      "greif": 4398,
      "hte": 4399,
      "kenntnis": 4400,
      "por": 4401,
      "sie": 4402,
      "Ġend": 4403,
      "ĠdÃ¼n": 4404,
      "Ġwid": 4405,
      "Ã¼hm": 4406,
      "genossen": 4407,
      "ĠSil": 4408,
      "ĠGÃ¤rten": 4409,
      "ĠWeile": 4410,
      "ĠWoche": 4411,
      "ĠDonn": 4412,
      "ĠfaÃŁte": 4413,
      "aue": 4414,
      "auben": 4415,
      "ichtung": 4416,
      "gehn": 4417,
      "Ġgepr": 4418,
      "Ġangew": 4419,
      "Ġschn": 4420,
      "umpf": 4421,
      "Ġbedenken": 4422,
      "ĠPunkt": 4423,
      "Ã¤nn": 4424,
      "Ġvorstellen": 4425,
      "ĠÃ¼berw": 4426,
      "ĠSta": 4427,
      "ĠumstÃ¤n": 4428,
      "ĠrÃ¼ck": 4429,
      "Ã¼nste": 4430,
      "Ġstud": 4431,
      "Ġtraten": 4432,
      "ĠBedeutung": 4433,
      "leidet": 4434,
      "ĠGrad": 4435,
      "Ġgeschm": 4436,
      "Ġohnehin": 4437,
      "Ġstehn": 4438,
      "Ġstellt": 4439,
      "Ġgerichtet": 4440,
      "Ġverschm": 4441,
      "ĠhÃ¤tt": 4442,
      "ĠZufriedenheit": 4443,
      "wÃ¤rtigen": 4444,
      "Ġgenugsam": 4445,
      "ĠUnternehmen": 4446,
      "Ġbelebt": 4447,
      "ĠEduards": 4448,
      "Ġentscheiden": 4449,
      "ĠJammer": 4450,
      "ĠHofrat": 4451,
      "ationen": 4452,
      "ĠFreilich": 4453,
      "Ã¶lker": 4454,
      "retchen": 4455,
      "Ġerinnerte": 4456,
      "hause": 4457,
      "Ġfreute": 4458,
      "ĠLeib": 4459,
      "Ġerfreuen": 4460,
      "ĠVersuch": 4461,
      "Ġbraucht": 4462,
      "ĠAngelika": 4463,
      "ĠÃ¼berrascht": 4464,
      "armon": 4465,
      "ĠWanderer": 4466,
      "ĠPflanzen": 4467,
      "ĠPublik": 4468,
      "ĠPeter": 4469,
      "Ġeingerichtet": 4470,
      "ĠBesonders": 4471,
      "ĠSehnsucht": 4472,
      "ĠPublikum": 4473,
      "Sch": 4474,
      "blichen": 4475,
      "duld": 4476,
      "fangen": 4477,
      "hÃ¤us": 4478,
      "satz": 4479,
      "utet": 4480,
      "Ġehren": 4481,
      "unnen": 4482,
      "inal": 4483,
      "inzen": 4484,
      "inkt": 4485,
      "Ġzarten": 4486,
      "Ġhart": 4487,
      "Ġzuzu": 4488,
      "aste": 4489,
      "ĠGuten": 4490,
      "ĠfaÃŁt": 4491,
      "ĠBis": 4492,
      "Ġgedenken": 4493,
      "ĠFÃ¼lle": 4494,
      "Ġvert": 4495,
      "Ġverstehen": 4496,
      "annen": 4497,
      "andten": 4498,
      "ĠRein": 4499,
      "agten": 4500,
      "ĠGebrauch": 4501,
      "zusehen": 4502,
      "olog": 4503,
      "ĠAnges": 4504,
      "Ġstiegen": 4505,
      "Ġbeson": 4506,
      "Ġtreiben": 4507,
      "Ġreg": 4508,
      "Ġhierher": 4509,
      "immern": 4510,
      "Ã¤ler": 4511,
      "Ã¼hlen": 4512,
      "ĠWiesen": 4513,
      "Ġverlor": 4514,
      "ĠAusfÃ¼hrung": 4515,
      "Ġkeinem": 4516,
      "ĠZusch": 4517,
      "Ġleer": 4518,
      "ĠNation": 4519,
      "sofern": 4520,
      "Ġbefand": 4521,
      "ĠKloster": 4522,
      "Ġverbinden": 4523,
      "ĠLuise": 4524,
      "ĠWellen": 4525,
      "Ġleisten": 4526,
      "Ġbewir": 4527,
      "assung": 4528,
      "usses": 4529,
      "ĠBeschÃ¤ft": 4530,
      "Ġentfernte": 4531,
      "ĠerzÃ¤hlt": 4532,
      "Ġtiefer": 4533,
      "Ġerkund": 4534,
      "Ġengen": 4535,
      "ĠGebirgs": 4536,
      "ĠvernÃ¼nft": 4537,
      "ĠVerzwei": 4538,
      "Ġversteht": 4539,
      "Ġschwarzen": 4540,
      "Ġzierlich": 4541,
      "Ġsanft": 4542,
      "ĠKorso": 4543,
      "ĠvergnÃ¼gt": 4544,
      "Ġaufgeregt": 4545,
      "Ġaufgehoben": 4546,
      "ĠWeltgeistlicher": 4547,
      "Marthe": 4548,
      "sil": 4549,
      "welt": 4550,
      "ĠX": 4551,
      "eiger": 4552,
      "Ġmache": 4553,
      "Ġnirgend": 4554,
      "Ġzeit": 4555,
      "Ġhielten": 4556,
      "ĠGeiste": 4557,
      "irk": 4558,
      "ĠWit": 4559,
      "ĠWahn": 4560,
      "Ġerwei": 4561,
      "ĠAkt": 4562,
      "Ġfurcht": 4563,
      "ĠMel": 4564,
      "ĠMangel": 4565,
      "Ġgebr": 4566,
      "ĠverstÃ¤n": 4567,
      "ĠKuÃŁ": 4568,
      "Ġschauen": 4569,
      "ĠschÃ¼t": 4570,
      "ĠdafÃ¼r": 4571,
      "ĠLeicht": 4572,
      "ĠLeuten": 4573,
      "umor": 4574,
      "ĠZwar": 4575,
      "ĠZauber": 4576,
      "Ġmanchem": 4577,
      "ĠPat": 4578,
      "Ġunsrer": 4579,
      "Ġhervort": 4580,
      "ĠOper": 4581,
      "ĠEinricht": 4582,
      "Ġwohlgeb": 4583,
      "Ġgesucht": 4584,
      "Ġwelch": 4585,
      "ĠweiÃŁt": 4586,
      "Ġdarum": 4587,
      "ĠInner": 4588,
      "Ã¼hrung": 4589,
      "Ġgleiche": 4590,
      "drÃ¤ng": 4591,
      "ternacht": 4592,
      "Ġverschlossen": 4593,
      "Ġneues": 4594,
      "ĠUmstÃ¤nde": 4595,
      "weder": 4596,
      "ĠHauses": 4597,
      "Ġheitern": 4598,
      "Ġerfreut": 4599,
      "ĠMakar": 4600,
      "ĠgrÃ¶ÃŁere": 4601,
      "Ġbehandelt": 4602,
      "ĠElend": 4603,
      "Ġbedeutender": 4604,
      "bildung": 4605,
      "ĠQuartier": 4606,
      "Ġbenach": 4607,
      "Ġoffenbar": 4608,
      "ĠLucian": 4609,
      "Ġtrefflichen": 4610,
      "ĠUnsere": 4611,
      "III": 4612,
      "Ġvollendet": 4613,
      "ĠlÃ¤chelnd": 4614,
      "ĠFigur": 4615,
      "Ġgewaltsam": 4616,
      "ĠChrist": 4617,
      "ĠHilarie": 4618,
      "ĠFrÃ¼chte": 4619,
      "ĠfleiÃŁig": 4620,
      "ĠAugust": 4621,
      "furcht": 4622,
      "griff": 4623,
      "hÃ¤ngen": 4624,
      "verst": 4625,
      "Ġdi": 4626,
      "eidet": 4627,
      "Ġsetzten": 4628,
      "indert": 4629,
      "Ġnein": 4630,
      "Ġeingef": 4631,
      "ĠGÃ¤rt": 4632,
      "ire": 4633,
      "derben": 4634,
      "ĠMauer": 4635,
      "ĠBreite": 4636,
      "tere": 4637,
      "ĠFinger": 4638,
      "Ġlegt": 4639,
      "ĠlÃ¤uft": 4640,
      "Ġverbar": 4641,
      "Ġanstatt": 4642,
      "ĠKol": 4643,
      "ĠTanz": 4644,
      "ĠNeug": 4645,
      "ĠZÃ¶": 4646,
      "ĠZahl": 4647,
      "ĠPre": 4648,
      "enner": 4649,
      "euchtete": 4650,
      "isk": 4651,
      "Ġausgef": 4652,
      "Ġvorigen": 4653,
      "anzt": 4654,
      "ĠStat": 4655,
      "ĠStill": 4656,
      "ĠStÃ¼cke": 4657,
      "ĠSturm": 4658,
      "Ġbeider": 4659,
      "Ġentf": 4660,
      "Ġstre": 4661,
      "Ġsechs": 4662,
      "ĠMitternacht": 4663,
      "Ġgeschehn": 4664,
      "Ġdran": 4665,
      "geschlagen": 4666,
      "ĠJahrs": 4667,
      "ĠKrankheit": 4668,
      "ĠBesuch": 4669,
      "ĠglÃ¼ckliche": 4670,
      "Ġglaub": 4671,
      "ĠkÃ¶nnt": 4672,
      "ĠGemein": 4673,
      "Ġfolgt": 4674,
      "ĠBlicke": 4675,
      "ĠKost": 4676,
      "ĠMorgens": 4677,
      "Ġentr": 4678,
      "ĠEmpfindungen": 4679,
      "ildeten": 4680,
      "ĠBemÃ¼h": 4681,
      "ĠAnstalten": 4682,
      "ĠErstaunen": 4683,
      "Ġerschienen": 4684,
      "Ġerlaubt": 4685,
      "ĠTrost": 4686,
      "ĠglÃ¤nzen": 4687,
      "ĠTepp": 4688,
      "Ġungeheure": 4689,
      "ĠVernunft": 4690,
      "Ġversammelt": 4691,
      "ĠUngeduld": 4692,
      "ĠAbenteuer": 4693,
      "ĠEinzel": 4694,
      "ĠEreignis": 4695,
      "ĠBekanntschaft": 4696,
      "bigen": 4697,
      "fol": 4698,
      "gere": 4699,
      "gibt": 4700,
      "iten": 4701,
      "sein": 4702,
      "sern": 4703,
      "tor": 4704,
      "tchen": 4705,
      "uppen": 4706,
      "volle": 4707,
      "wur": 4708,
      "zeigen": 4709,
      "Ġwus": 4710,
      "Ġunauf": 4711,
      "ins": 4712,
      "Ã¼st": 4713,
      "Ã¼ge": 4714,
      "orte": 4715,
      "orren": 4716,
      "ĠWend": 4717,
      "ĠWochen": 4718,
      "ign": 4719,
      "schte": 4720,
      "schrift": 4721,
      "ĠDamen": 4722,
      "urs": 4723,
      "ckel": 4724,
      "Ġlinken": 4725,
      "Ġanerk": 4726,
      "ĠanstÃ¤ndig": 4727,
      "ĠKÃ¶pf": 4728,
      "Ġschrieb": 4729,
      "ĠTiefe": 4730,
      "Ġmitzu": 4731,
      "Ġbezahl": 4732,
      "ĠZier": 4733,
      "ĠPul": 4734,
      "Ġvorteil": 4735,
      "eilt": 4736,
      "ĠVerdienst": 4737,
      "ĠErfahr": 4738,
      "Ġgewid": 4739,
      "ĠgewÃ¤hrt": 4740,
      "iens": 4741,
      "ahrung": 4742,
      "Ġwerd": 4743,
      "Ġdul": 4744,
      "ĠEinsicht": 4745,
      "Ġselber": 4746,
      "bruch": 4747,
      "Ġrechte": 4748,
      "Ġgesorgt": 4749,
      "Ġweite": 4750,
      "ĠVortrag": 4751,
      "rifft": 4752,
      "reuz": 4753,
      "Ġunseres": 4754,
      "Ġwahren": 4755,
      "Ġworaus": 4756,
      "ĠBeschrei": 4757,
      "ĠÃ¤uÃŁere": 4758,
      "Ġfuhren": 4759,
      "ĠbeschÃ¤ftigen": 4760,
      "ĠbeschÃ¤ftigte": 4761,
      "Ġfreuen": 4762,
      "Ġfreudig": 4763,
      "Ġeigner": 4764,
      "ĠdÃ¼rfte": 4765,
      "ĠFÃ¤h": 4766,
      "seits": 4767,
      "ifft": 4768,
      "Ġgelangte": 4769,
      "ĠtÃ¤tig": 4770,
      "Ġmenschlichen": 4771,
      "ĠgefÃ¤hrlich": 4772,
      "ĠVerdruÃŁ": 4773,
      "ĠTreppe": 4774,
      "ĠwÃ¤hrend": 4775,
      "ĠzunÃ¤chst": 4776,
      "ĠAngesicht": 4777,
      "Ġbenachbar": 4778,
      "Al": 4779,
      "Wir": 4780,
      "fÃ¤": 4781,
      "het": 4782,
      "kehrt": 4783,
      "nÃ¤d": 4784,
      "op": 4785,
      "punkt": 4786,
      "sig": 4787,
      "sagen": 4788,
      "swer": 4789,
      "uge": 4790,
      "yt": 4791,
      "zum": 4792,
      "ĠÃ¤r": 4793,
      "eige": 4794,
      "Ġsorgen": 4795,
      "Ġunendlich": 4796,
      "ans": 4797,
      "ankt": 4798,
      "Ã¼g": 4799,
      "Ġeinsam": 4800,
      "Ġbill": 4801,
      "aschen": 4802,
      "dere": 4803,
      "Ġerhe": 4804,
      "ĠAt": 4805,
      "Ġkind": 4806,
      "Ġgez": 4807,
      "cker": 4808,
      "ĠHafen": 4809,
      "ĠverstÃ¤ndig": 4810,
      "Ġansch": 4811,
      "Ġansehen": 4812,
      "ethe": 4813,
      "hnte": 4814,
      "ĠTun": 4815,
      "Ġbehalten": 4816,
      "Ġbekl": 4817,
      "stellt": 4818,
      "ĠErlaub": 4819,
      "anzig": 4820,
      "ĠStock": 4821,
      "Ġbeisammen": 4822,
      "Ġstieg": 4823,
      "brachte": 4824,
      "omen": 4825,
      "egenheiten": 4826,
      "digung": 4827,
      "Ġgeliebt": 4828,
      "ĠEngl": 4829,
      "angenen": 4830,
      "Ġstellte": 4831,
      "Ġgeraten": 4832,
      "riften": 4833,
      "ĠLieber": 4834,
      "Ġfortzu": 4835,
      "Ġbefr": 4836,
      "ĠAmor": 4837,
      "Ã¤hlt": 4838,
      "Ġdeines": 4839,
      "Ġeinzig": 4840,
      "Ġwahrhaft": 4841,
      "ĠlÃ¤sst": 4842,
      "ĠMÃ¤nnern": 4843,
      "Ġangenehmen": 4844,
      "Ġzerstreu": 4845,
      "ĠFÃ¤lle": 4846,
      "Ġbegleiten": 4847,
      "deckte": 4848,
      "ĠWissenschaft": 4849,
      "Ġdringend": 4850,
      "Ġdienen": 4851,
      "ĠEpoche": 4852,
      "ĠnÃ¼tzlich": 4853,
      "ĠFerdin": 4854,
      "ĠGlauben": 4855,
      "ĠEinsiedler": 4856,
      "ĠLÃ¤cheln": 4857,
      "Ġnirgends": 4858,
      "Ġverbarg": 4859,
      "maÃŁ": 4860,
      "val": 4861,
      "wo": 4862,
      "wen": 4863,
      "esser": 4864,
      "Ġmel": 4865,
      "Ġnehme": 4866,
      "Ã¤ge": 4867,
      "Ġzehn": 4868,
      "ĠSiz": 4869,
      "ĠGet": 4870,
      "ĠGaben": 4871,
      "irt": 4872,
      "lichten": 4873,
      "denn": 4874,
      "denz": 4875,
      "ĠMet": 4876,
      "ĠMil": 4877,
      "Ġinsofern": 4878,
      "Ġgep": 4879,
      "Ġgezeichnet": 4880,
      "ĠFeier": 4881,
      "ĠHumor": 4882,
      "ĠverlieÃŁ": 4883,
      "Ġandr": 4884,
      "Ġschein": 4885,
      "ĠschlieÃŁt": 4886,
      "Ġdazwischen": 4887,
      "ĠVo": 4888,
      "ĠVÃ¶lker": 4889,
      "ĠLin": 4890,
      "ĠLehre": 4891,
      "ĠThr": 4892,
      "ĠTrieb": 4893,
      "Ã¼rft": 4894,
      "Ġwirkt": 4895,
      "ĠSchei": 4896,
      "hend": 4897,
      "trieben": 4898,
      "ĠĠĠĠĠĠĠĠĠĠĠĠĠ": 4899,
      "Ġherz": 4900,
      "ĠVerÃ¤nder": 4901,
      "ĠOff": 4902,
      "Ġentstehen": 4903,
      "âĢĻ": 4904,
      "Ġgeneigt": 4905,
      "Ġabges": 4906,
      "ĠVorstell": 4907,
      "ĠVorstellung": 4908,
      "ĠWird": 4909,
      "drungen": 4910,
      "ĠGegenstÃ¤nden": 4911,
      "ĠArzt": 4912,
      "ĠâĢĺ": 4913,
      "ĠbeschrÃ¤n": 4914,
      "Ġgehor": 4915,
      "Ġschwach": 4916,
      "ĠAbwesen": 4917,
      "ĠDenken": 4918,
      "Ġfreie": 4919,
      "Ġverweilen": 4920,
      "Ġempor": 4921,
      "ĠBergen": 4922,
      "Ġwundersam": 4923,
      "Ġeinzigen": 4924,
      "ĠgrÃ¶ÃŁer": 4925,
      "Ġbeleben": 4926,
      "Ġbetrachtete": 4927,
      "ĠMeere": 4928,
      "ĠKinde": 4929,
      "Ã¤chtnis": 4930,
      "spruch": 4931,
      "reiche": 4932,
      "Ġreiten": 4933,
      "Ġlebhaften": 4934,
      "ĠĠĠĠĠĠĠĠĠĠĠĠĠĠĠĠĠĠĠĠĠĠĠĠĠ": 4935,
      "Ġbetrifft": 4936,
      "Ġhebt": 4937,
      "klÃ¤rung": 4938,
      "?\"--\"": 4939,
      "Ġzerr": 4940,
      "Ġentwickelt": 4941,
      "ĠMasken": 4942,
      "ĠHeiter": 4943,
      "Ġunwider": 4944,
      "packt": 4945,
      "Ã¼mmern": 4946,
      "ĠJuli": 4947,
      "ĠgewÃ¤hren": 4948,
      "Ġunterrichtet": 4949,
      "ĠStaat": 4950,
      "ĠWitwe": 4951,
      "ĠSizilien": 4952,
      "'t": 4953,
      "gÃ¤nger": 4954,
      "losen": 4955,
      "sieht": 4956,
      "wagen": 4957,
      "Ġ6": 4958,
      "enken": 4959,
      "chtet": 4960,
      "ietet": 4961,
      "Ġster": 4962,
      "Ġsinn": 4963,
      "ĠsÃ¼ÃŁ": 4964,
      "Ġwagen": 4965,
      "Ġwisse": 4966,
      "Ġunaus": 4967,
      "Ġmerken": 4968,
      "Ã¼che": 4969,
      "Ã¼ster": 4970,
      "Ġzar": 4971,
      "Ġhandeln": 4972,
      "ĠSÃ¼": 4973,
      "ĠSal": 4974,
      "ĠWoll": 4975,
      "igr": 4976,
      "auert": 4977,
      "ĠEt": 4978,
      "ĠBal": 4979,
      "ĠBart": 4980,
      "Ġkalt": 4981,
      "Ġgepfl": 4982,
      "Ġsogen": 4983,
      "ĠHie": 4984,
      "ĠHut": 4985,
      "ĠHÃ¶r": 4986,
      "berg": 4987,
      "Ġlegen": 4988,
      "Ġloben": 4989,
      "Ġangem": 4990,
      "Ġschau": 4991,
      "ĠLÃ¶": 4992,
      "ĠIhm": 4993,
      "ĠNeben": 4994,
      "euern": 4995,
      "Ã¤ndern": 4996,
      "ĠausgefÃ¼hrt": 4997,
      "ĠĠĠĠĠĠĠĠĠĠĠ": 4998,
      "Ġnacht": 4999
    },
    "merges": [
      [
        "e",
        "n"
      ],
      [
        "c",
        "h"
      ],
      [
        "e",
        "r"
      ],
      [
        "č",
        "Ċ"
      ],
      [
        "Ġ",
        "d"
      ],
      [
        "e",
        "i"
      ],
      [
        "i",
        "e"
      ],
      [
        "Ġ",
        "s"
      ],
      [
        "u",
        "n"
      ],
      [
        "i",
        "ch"
      ],
      [
        "Ġ",
        "w"
      ],
      [
        "Ġ",
        "a"
      ],
      [
        "ei",
        "n"
      ],
      [
        "e",
        "s"
      ],
      [
        "Ġ",
        "un"
      ],
      [
        "t",
        "e"
      ],
      [
        "Ġ",
        "m"
      ],
      [
        "i",
        "n"
      ],
      [
        "Ġ",
        "g"
      ],
      [
        "a",
        "n"
      ],
      [
        "Ã",
        "¼"
      ],
      [
        "s",
        "t"
      ],
      [
        "Ġun",
        "d"
      ],
      [
        "Ġ",
        "n"
      ],
      [
        "Ġ",
        "v"
      ],
      [
        "Ã",
        "¤"
      ],
      [
        "Ġ",
        "Ġ"
      ],
      [
        "Ġ",
        "z"
      ],
      [
        "g",
        "en"
      ],
      [
        "Ġd",
        "ie"
      ],
      [
        "Ġ",
        "h"
      ],
      [
        "Ġ",
        "S"
      ],
      [
        "Ġ",
        "ein"
      ],
      [
        "l",
        "l"
      ],
      [
        "Ġ",
        "b"
      ],
      [
        "Ġ",
        "čĊ"
      ],
      [
        "Ġ",
        "i"
      ],
      [
        "Ġz",
        "u"
      ],
      [
        "a",
        "s"
      ],
      [
        "e",
        "l"
      ],
      [
        "a",
        "r"
      ],
      [
        "t",
        "en"
      ],
      [
        "e",
        "m"
      ],
      [
        "Ã",
        "Ł"
      ],
      [
        "h",
        "r"
      ],
      [
        "o",
        "n"
      ],
      [
        "Ġ",
        "G"
      ],
      [
        "Ġd",
        "er"
      ],
      [
        "Ġa",
        "u"
      ],
      [
        "o",
        "r"
      ],
      [
        "i",
        "r"
      ],
      [
        "Ġ",
        "W"
      ],
      [
        "i",
        "g"
      ],
      [
        "d",
        "er"
      ],
      [
        "Ġ",
        "er"
      ],
      [
        "l",
        "ich"
      ],
      [
        "s",
        "ch"
      ],
      [
        "Ġ",
        "A"
      ],
      [
        "Ġ",
        "D"
      ],
      [
        "Ã",
        "¶"
      ],
      [
        "Ġ",
        "f"
      ],
      [
        "d",
        "en"
      ],
      [
        "a",
        "u"
      ],
      [
        "i",
        "t"
      ],
      [
        "ich",
        "t"
      ],
      [
        "Ġ",
        "M"
      ],
      [
        "Ġ",
        "in"
      ],
      [
        "a",
        "ch"
      ],
      [
        "g",
        "e"
      ],
      [
        "Ġ",
        "E"
      ],
      [
        "Ġ",
        "B"
      ],
      [
        "Ġ",
        "k"
      ],
      [
        "Ġ",
        "ich"
      ],
      [
        "Ġg",
        "e"
      ],
      [
        "Ġd",
        "en"
      ],
      [
        "d",
        "e"
      ],
      [
        "t",
        "er"
      ],
      [
        "a",
        "l"
      ],
      [
        "Ġs",
        "o"
      ],
      [
        "u",
        "r"
      ],
      [
        "Ġs",
        "ich"
      ],
      [
        "c",
        "k"
      ],
      [
        "Ġ",
        "F"
      ],
      [
        "Ġ",
        "H"
      ],
      [
        "b",
        "en"
      ],
      [
        "ĠĠ",
        "ĠĠ"
      ],
      [
        "b",
        "er"
      ],
      [
        "Ġ",
        "l"
      ],
      [
        "r",
        "e"
      ],
      [
        "Ġv",
        "er"
      ],
      [
        "Ġn",
        "icht"
      ],
      [
        "Ġa",
        "n"
      ],
      [
        "Ġs",
        "ie"
      ],
      [
        "a",
        "t"
      ],
      [
        "Ġd",
        "as"
      ],
      [
        "m",
        "m"
      ],
      [
        "Ġ",
        "K"
      ],
      [
        "Ġs",
        "ch"
      ],
      [
        "Ġau",
        "f"
      ],
      [
        "e",
        "t"
      ],
      [
        "Ġd",
        "a"
      ],
      [
        "h",
        "n"
      ],
      [
        "Ġ",
        "V"
      ],
      [
        "Ġ",
        "L"
      ],
      [
        "un",
        "g"
      ],
      [
        "Ġ",
        "T"
      ],
      [
        "o",
        "ch"
      ],
      [
        "ei",
        "t"
      ],
      [
        "s",
        "en"
      ],
      [
        "Ġm",
        "it"
      ],
      [
        "Ġv",
        "on"
      ],
      [
        "Ġ",
        "I"
      ],
      [
        "ei",
        "ch"
      ],
      [
        "Ġ",
        "es"
      ],
      [
        "s",
        "e"
      ],
      [
        "Ġ",
        "N"
      ],
      [
        "f",
        "t"
      ],
      [
        "Ġw",
        "ie"
      ],
      [
        "an",
        "n"
      ],
      [
        "Ġs",
        "ein"
      ],
      [
        "Ġi",
        "st"
      ],
      [
        "Ġd",
        "em"
      ],
      [
        "h",
        "l"
      ],
      [
        "Ã¼",
        "r"
      ],
      [
        "Ġw",
        "ar"
      ],
      [
        "Ġw",
        "ir"
      ],
      [
        "u",
        "m"
      ],
      [
        "Ġ",
        "U"
      ],
      [
        "Ġb",
        "e"
      ],
      [
        "l",
        "s"
      ],
      [
        "Ġ",
        "Z"
      ],
      [
        "Ġw",
        "o"
      ],
      [
        "Ġm",
        "an"
      ],
      [
        "Ġ",
        "P"
      ],
      [
        "Ġi",
        "hr"
      ],
      [
        "ĠS",
        "ch"
      ],
      [
        "en",
        "n"
      ],
      [
        "Ġa",
        "ll"
      ],
      [
        "i",
        "er"
      ],
      [
        "Ġ",
        "j"
      ],
      [
        "e",
        "hr"
      ],
      [
        "h",
        "en"
      ],
      [
        "an",
        "d"
      ],
      [
        "Ġ",
        "R"
      ],
      [
        "t",
        "r"
      ],
      [
        "e",
        "u"
      ],
      [
        "er",
        "n"
      ],
      [
        "a",
        "g"
      ],
      [
        "Ġa",
        "ls"
      ],
      [
        "ĠG",
        "e"
      ],
      [
        "h",
        "m"
      ],
      [
        "Ġm",
        "ir"
      ],
      [
        "Ã¤",
        "n"
      ],
      [
        "Ġun",
        "s"
      ],
      [
        "Ġm",
        "ich"
      ],
      [
        "Ã¼",
        "ber"
      ],
      [
        "i",
        "s"
      ],
      [
        "Ġd",
        "es"
      ],
      [
        "ĠU",
        "n"
      ],
      [
        "es",
        "ch"
      ],
      [
        "b",
        "e"
      ],
      [
        "ĠA",
        "u"
      ],
      [
        "Ã¼",
        "ck"
      ],
      [
        "Ġda",
        "ÃŁ"
      ],
      [
        "Ġ",
        "o"
      ],
      [
        "Ġau",
        "s"
      ],
      [
        "Ġv",
        "or"
      ],
      [
        "i",
        "l"
      ],
      [
        "Ġm",
        "ein"
      ],
      [
        "Ġh",
        "at"
      ],
      [
        "ur",
        "ch"
      ],
      [
        "Ġein",
        "e"
      ],
      [
        "r",
        "ei"
      ],
      [
        "Ã¶",
        "n"
      ],
      [
        "i",
        "gen"
      ],
      [
        "ei",
        "l"
      ],
      [
        "Ġ",
        "Ã¼ber"
      ],
      [
        "i",
        "sch"
      ],
      [
        "a",
        "m"
      ],
      [
        "en",
        "t"
      ],
      [
        "ĠĠĠĠ",
        "ĠĠĠĠ"
      ],
      [
        "ch",
        "en"
      ],
      [
        "Ġn",
        "ach"
      ],
      [
        "r",
        "o"
      ],
      [
        "z",
        "u"
      ],
      [
        "s",
        "te"
      ],
      [
        "Ġh",
        "er"
      ],
      [
        "ie",
        "l"
      ],
      [
        "Ġh",
        "a"
      ],
      [
        "f",
        "f"
      ],
      [
        "Ġau",
        "ch"
      ],
      [
        "ĠV",
        "er"
      ],
      [
        "st",
        "en"
      ],
      [
        "ĠE",
        "r"
      ],
      [
        "u",
        "t"
      ],
      [
        "e",
        "g"
      ],
      [
        "an",
        "z"
      ],
      [
        "et",
        "z"
      ],
      [
        "in",
        "d"
      ],
      [
        "es",
        "t"
      ],
      [
        "ĠS",
        "t"
      ],
      [
        "ch",
        "t"
      ],
      [
        "ĠD",
        "ie"
      ],
      [
        "o",
        "l"
      ],
      [
        "Ġdie",
        "s"
      ],
      [
        "Ġ",
        "t"
      ],
      [
        "Ġ",
        "um"
      ],
      [
        "Ġ",
        "r"
      ],
      [
        "Ġd",
        "urch"
      ],
      [
        "l",
        "eich"
      ],
      [
        "Ġa",
        "ber"
      ],
      [
        "ll",
        "en"
      ],
      [
        "Ã¼",
        "n"
      ],
      [
        "mm",
        "en"
      ],
      [
        "n",
        "e"
      ],
      [
        "u",
        "ÃŁ"
      ],
      [
        "ĠS",
        "ie"
      ],
      [
        "Ġge",
        "w"
      ],
      [
        "i",
        "ck"
      ],
      [
        "e",
        "ben"
      ],
      [
        "Ġh",
        "in"
      ],
      [
        "i",
        "en"
      ],
      [
        "Ġ",
        "O"
      ],
      [
        "Ġn",
        "ur"
      ],
      [
        "ĠA",
        "n"
      ],
      [
        "Ġn",
        "och"
      ],
      [
        "ĠI",
        "ch"
      ],
      [
        "Ġw",
        "as"
      ],
      [
        "a",
        "hr"
      ],
      [
        "Ġb",
        "ei"
      ],
      [
        "h",
        "e"
      ],
      [
        "mm",
        "er"
      ],
      [
        "ig",
        "e"
      ],
      [
        "Ġ",
        "J"
      ],
      [
        "Ġ",
        "ent"
      ],
      [
        "Ġs",
        "t"
      ],
      [
        "r",
        "t"
      ],
      [
        "Ġw",
        "er"
      ],
      [
        "Ġi",
        "m"
      ],
      [
        "a",
        "gen"
      ],
      [
        "ach",
        "t"
      ],
      [
        "Ġi",
        "hn"
      ],
      [
        "p",
        "f"
      ],
      [
        "h",
        "er"
      ],
      [
        "Ġein",
        "en"
      ],
      [
        "n",
        "en"
      ],
      [
        "g",
        "t"
      ],
      [
        "i",
        "ll"
      ],
      [
        "Ġd",
        "u"
      ],
      [
        "Ġw",
        "enn"
      ],
      [
        "k",
        "en"
      ],
      [
        "a",
        "ft"
      ],
      [
        "lich",
        "en"
      ],
      [
        "un",
        "d"
      ],
      [
        "Ã¤",
        "t"
      ],
      [
        "der",
        "n"
      ],
      [
        "ĠUn",
        "d"
      ],
      [
        "ÃŁ",
        "en"
      ],
      [
        "Ġf",
        "Ã¼r"
      ],
      [
        "h",
        "t"
      ],
      [
        "p",
        "r"
      ],
      [
        "b",
        "st"
      ],
      [
        "Ġl",
        "ie"
      ],
      [
        "ĠE",
        "in"
      ],
      [
        "Ġ",
        "\""
      ],
      [
        "b",
        "t"
      ],
      [
        "Ġg",
        "anz"
      ],
      [
        "ĠH",
        "er"
      ],
      [
        "un",
        "gen"
      ],
      [
        "Ġi",
        "hm"
      ],
      [
        "or",
        "t"
      ],
      [
        "Ġwie",
        "der"
      ],
      [
        "au",
        "s"
      ],
      [
        "k",
        "eit"
      ],
      [
        "o",
        "t"
      ],
      [
        "ch",
        "e"
      ],
      [
        "z",
        "en"
      ],
      [
        "Ġb",
        "es"
      ],
      [
        "Ġden",
        "n"
      ],
      [
        "Ġd",
        "och"
      ],
      [
        "Ġein",
        "em"
      ],
      [
        "Ġs",
        "el"
      ],
      [
        "Ġwo",
        "hl"
      ],
      [
        "-",
        "-"
      ],
      [
        "b",
        "l"
      ],
      [
        "m",
        "al"
      ],
      [
        "an",
        "g"
      ],
      [
        "ĠD",
        "er"
      ],
      [
        "â",
        "Ģ"
      ],
      [
        "Ġn",
        "un"
      ],
      [
        "b",
        "r"
      ],
      [
        "te",
        "t"
      ],
      [
        "Ġso",
        "ll"
      ],
      [
        "Ġj",
        "e"
      ],
      [
        "h",
        "al"
      ],
      [
        "ĠF",
        "r"
      ],
      [
        "Ġhat",
        "te"
      ],
      [
        "ĠS",
        "o"
      ],
      [
        "Ġun",
        "ter"
      ],
      [
        "Ġzu",
        "r"
      ],
      [
        "en",
        "d"
      ],
      [
        "w",
        "ei"
      ],
      [
        "Ġein",
        "er"
      ],
      [
        "h",
        "eit"
      ],
      [
        "er",
        "k"
      ],
      [
        "in",
        "g"
      ],
      [
        "Ġ",
        "tr"
      ],
      [
        "el",
        "t"
      ],
      [
        "ĠB",
        "e"
      ],
      [
        "o",
        "mmen"
      ],
      [
        "ĠF",
        "re"
      ],
      [
        "lich",
        "e"
      ],
      [
        "l",
        "ei"
      ],
      [
        "Ġv",
        "iel"
      ],
      [
        "o",
        "m"
      ],
      [
        "Ġm",
        "ehr"
      ],
      [
        "o",
        "s"
      ],
      [
        "Ġs",
        "e"
      ],
      [
        "u",
        "s"
      ],
      [
        "Ġwir",
        "d"
      ],
      [
        "sch",
        "en"
      ],
      [
        "'",
        "s"
      ],
      [
        "f",
        "en"
      ],
      [
        "Ġ",
        "re"
      ],
      [
        "ein",
        "e"
      ],
      [
        "Ġg",
        "es"
      ],
      [
        "Ġg",
        "en"
      ],
      [
        "l",
        "ie"
      ],
      [
        "Ġs",
        "ind"
      ],
      [
        "Ġall",
        "es"
      ],
      [
        "b",
        "ar"
      ],
      [
        "Ġw",
        "el"
      ],
      [
        "Ġf",
        "r"
      ],
      [
        "Ġsel",
        "bst"
      ],
      [
        "Ġk",
        "ann"
      ],
      [
        "Ġw",
        "ei"
      ],
      [
        "Ġd",
        "ar"
      ],
      [
        "ĠG",
        "es"
      ],
      [
        "g",
        "el"
      ],
      [
        "l",
        "Ã¼ck"
      ],
      [
        "ĠI",
        "n"
      ],
      [
        "a",
        "ÃŁ"
      ],
      [
        "r",
        "ie"
      ],
      [
        "ĠD",
        "as"
      ],
      [
        "Ġ",
        "C"
      ],
      [
        "Ġh",
        "ier"
      ],
      [
        "ĠM",
        "en"
      ],
      [
        "Ġsch",
        "on"
      ],
      [
        "Ġi",
        "mmer"
      ],
      [
        "e",
        "gen"
      ],
      [
        "Ã¤",
        "r"
      ],
      [
        "Ġa",
        "b"
      ],
      [
        "i",
        "mm"
      ],
      [
        "Ġg",
        "ro"
      ],
      [
        "Ġwer",
        "den"
      ],
      [
        "Ã¤",
        "l"
      ],
      [
        "isch",
        "en"
      ],
      [
        "Ã¼",
        "hr"
      ],
      [
        "d",
        "ig"
      ],
      [
        "ĠV",
        "or"
      ],
      [
        "Ġsch",
        "Ã¶n"
      ],
      [
        "u",
        "l"
      ],
      [
        "p",
        "h"
      ],
      [
        "Ã¶",
        "r"
      ],
      [
        "ei",
        "st"
      ],
      [
        "s",
        "am"
      ],
      [
        "er",
        "e"
      ],
      [
        "ein",
        "en"
      ],
      [
        "as",
        "sen"
      ],
      [
        "Ã¼",
        "hl"
      ],
      [
        "etz",
        "t"
      ],
      [
        "ll",
        "e"
      ],
      [
        "on",
        "n"
      ],
      [
        "ĠW",
        "ir"
      ],
      [
        "Ġver",
        "s"
      ],
      [
        "Ġdie",
        "se"
      ],
      [
        "ĠE",
        "s"
      ],
      [
        "Ġg",
        "el"
      ],
      [
        "k",
        "t"
      ],
      [
        "Ġha",
        "be"
      ],
      [
        "Ġs",
        "ei"
      ],
      [
        "Ġha",
        "ben"
      ],
      [
        "Ġg",
        "leich"
      ],
      [
        "u",
        "st"
      ],
      [
        "Ġ",
        "_"
      ],
      [
        "Ġk",
        "l"
      ],
      [
        "ĠZ",
        "eit"
      ],
      [
        "sch",
        "aft"
      ],
      [
        "g",
        "leich"
      ],
      [
        "in",
        "n"
      ],
      [
        "ĠG",
        "r"
      ],
      [
        "hn",
        "e"
      ],
      [
        "de",
        "t"
      ],
      [
        "in",
        "gen"
      ],
      [
        "el",
        "n"
      ],
      [
        "a",
        "b"
      ],
      [
        "au",
        "f"
      ],
      [
        "ch",
        "te"
      ],
      [
        "Ġzu",
        "m"
      ],
      [
        "s",
        "er"
      ],
      [
        "g",
        "er"
      ],
      [
        "ĠE",
        "n"
      ],
      [
        "w",
        "ar"
      ],
      [
        "Ġk",
        "Ã¶n"
      ],
      [
        "n",
        "is"
      ],
      [
        "Ġw",
        "en"
      ],
      [
        "an",
        "gen"
      ],
      [
        "g",
        "es"
      ],
      [
        "ei",
        "ten"
      ],
      [
        "Ġw",
        "ill"
      ],
      [
        "al",
        "d"
      ],
      [
        "d",
        "em"
      ],
      [
        "u",
        "g"
      ],
      [
        "ig",
        "er"
      ],
      [
        "ĠM",
        "it"
      ],
      [
        "ach",
        "en"
      ],
      [
        "Ġge",
        "gen"
      ],
      [
        "a",
        "ll"
      ],
      [
        "Ġsein",
        "e"
      ],
      [
        "i",
        "st"
      ],
      [
        "d",
        "r"
      ],
      [
        "Ġb",
        "r"
      ],
      [
        "ĠAu",
        "gen"
      ],
      [
        "Ġg",
        "esch"
      ],
      [
        "al",
        "t"
      ],
      [
        "a",
        "f"
      ],
      [
        "a",
        "ge"
      ],
      [
        "Ġm",
        "uÃŁ"
      ],
      [
        "l",
        "au"
      ],
      [
        "bl",
        "ick"
      ],
      [
        "Ġk",
        "onn"
      ],
      [
        "Ġ",
        "e"
      ],
      [
        "Ġs",
        "ehr"
      ],
      [
        "ĠGe",
        "gen"
      ],
      [
        "ĠW",
        "as"
      ],
      [
        "Ġso",
        "l"
      ],
      [
        "Ġdies",
        "er"
      ],
      [
        "ĠĠ",
        "Ġ"
      ],
      [
        "Ġo",
        "hne"
      ],
      [
        ".",
        "_"
      ],
      [
        "ĠW",
        "ie"
      ],
      [
        "Ġo",
        "der"
      ],
      [
        "Ġge",
        "f"
      ],
      [
        "Ġd",
        "ich"
      ],
      [
        "un",
        "der"
      ],
      [
        "eich",
        "t"
      ],
      [
        "Ġmein",
        "e"
      ],
      [
        "er",
        "t"
      ],
      [
        "Ġn",
        "ie"
      ],
      [
        "ĠAu",
        "f"
      ],
      [
        "ĠĠĠĠĠĠĠĠ",
        "ĠĠĠĠĠĠĠĠ"
      ],
      [
        "ĠM",
        "ann"
      ],
      [
        "a",
        "d"
      ],
      [
        "Ġs",
        "on"
      ],
      [
        "au",
        "m"
      ],
      [
        "ff",
        "en"
      ],
      [
        "Ġihr",
        "e"
      ],
      [
        "Ġj",
        "en"
      ],
      [
        "ĠL",
        "eben"
      ],
      [
        "ag",
        "te"
      ],
      [
        "s",
        "a"
      ],
      [
        "Ġd",
        "ir"
      ],
      [
        "Ġ",
        "et"
      ],
      [
        "o",
        "ll"
      ],
      [
        "Ġg",
        "r"
      ],
      [
        "ei",
        "gen"
      ],
      [
        "d",
        "es"
      ],
      [
        "Ġnicht",
        "s"
      ],
      [
        "s",
        "el"
      ],
      [
        "l",
        "e"
      ],
      [
        "ĠG",
        "esch"
      ],
      [
        "lich",
        "er"
      ],
      [
        "hm",
        "en"
      ],
      [
        "a",
        "ter"
      ],
      [
        "Ġall",
        "e"
      ],
      [
        "es",
        "en"
      ],
      [
        "ĠB",
        "l"
      ],
      [
        "ĠA",
        "l"
      ],
      [
        "Ġs",
        "te"
      ],
      [
        "un",
        "den"
      ],
      [
        "Ġet",
        "w"
      ],
      [
        "Ġa",
        "m"
      ],
      [
        "Ġm",
        "Ã¶"
      ],
      [
        "ĠB",
        "r"
      ],
      [
        "ĠW",
        "ei"
      ],
      [
        "Ġg",
        "ar"
      ],
      [
        "Ġzur",
        "Ã¼ck"
      ],
      [
        "hal",
        "ten"
      ],
      [
        "ei",
        "g"
      ],
      [
        "ĠA",
        "r"
      ],
      [
        "Ġg",
        "er"
      ],
      [
        "e",
        "ll"
      ],
      [
        "it",
        "t"
      ],
      [
        "ÃŁ",
        "t"
      ],
      [
        "a",
        "p"
      ],
      [
        "u",
        "ten"
      ],
      [
        "Ġb",
        "is"
      ],
      [
        "Ã¤",
        "rt"
      ],
      [
        "ĠW",
        "elt"
      ],
      [
        "Ġ",
        "âĢ"
      ],
      [
        "ach",
        "te"
      ],
      [
        "Ġan",
        "der"
      ],
      [
        "r",
        "i"
      ],
      [
        "k",
        "ommen"
      ],
      [
        "ter",
        "n"
      ],
      [
        "ĠS",
        "e"
      ],
      [
        "ĠMen",
        "schen"
      ],
      [
        "Ã¤l",
        "t"
      ],
      [
        "âĢ",
        "ľ"
      ],
      [
        "u",
        "ch"
      ],
      [
        "in",
        "den"
      ],
      [
        "Ġgro",
        "ÃŁ"
      ],
      [
        "Ġb",
        "esch"
      ],
      [
        "ĠP",
        "f"
      ],
      [
        "un",
        "de"
      ],
      [
        "a",
        "h"
      ],
      [
        "ig",
        "keit"
      ],
      [
        "te",
        "l"
      ],
      [
        ".",
        "\""
      ],
      [
        "ĠH",
        "au"
      ],
      [
        "Ã¤",
        "ch"
      ],
      [
        "g",
        "lich"
      ],
      [
        "ĠL",
        "ie"
      ],
      [
        "Ġan",
        "dern"
      ],
      [
        "er",
        "s"
      ],
      [
        "Ġsein",
        "er"
      ],
      [
        "ĠâĢ",
        "ŀ"
      ],
      [
        "Ġver",
        "l"
      ],
      [
        "re",
        "u"
      ],
      [
        "et",
        "r"
      ],
      [
        "Ġh",
        "Ã¶"
      ],
      [
        "Ġse",
        "hen"
      ],
      [
        "Ġkonn",
        "te"
      ],
      [
        "ei",
        "den"
      ],
      [
        "au",
        "en"
      ],
      [
        "z",
        "e"
      ],
      [
        "ĠN",
        "ach"
      ],
      [
        "Ġ",
        "p"
      ],
      [
        "Ġd",
        "r"
      ],
      [
        "f",
        "e"
      ],
      [
        "ĠH",
        "and"
      ],
      [
        "n",
        "er"
      ],
      [
        "Ġver",
        "sch"
      ],
      [
        "Ġetw",
        "as"
      ],
      [
        "ĠC",
        "h"
      ],
      [
        "i",
        "on"
      ],
      [
        "o",
        "mm"
      ],
      [
        "Ġn",
        "eu"
      ],
      [
        "Ġge",
        "h"
      ],
      [
        "Ġbe",
        "g"
      ],
      [
        "ĠAu",
        "s"
      ],
      [
        "q",
        "u"
      ],
      [
        "an",
        "der"
      ],
      [
        "ĠT",
        "r"
      ],
      [
        "Ġb",
        "ald"
      ],
      [
        "Ġsch",
        "w"
      ],
      [
        "b",
        "ei"
      ],
      [
        "Ã¼",
        "t"
      ],
      [
        "Ġwo",
        "ll"
      ],
      [
        "w",
        "eg"
      ],
      [
        "Ġs",
        "p"
      ],
      [
        "il",
        "d"
      ],
      [
        "a",
        "st"
      ],
      [
        "ĠI",
        "hr"
      ],
      [
        "gen",
        "d"
      ],
      [
        "ar",
        "t"
      ],
      [
        "ch",
        "er"
      ],
      [
        "an",
        "ge"
      ],
      [
        "ge",
        "ben"
      ],
      [
        "is",
        "sen"
      ],
      [
        "Ġh",
        "Ã¤t"
      ],
      [
        "ĠM",
        "an"
      ],
      [
        "Ġsein",
        "en"
      ],
      [
        "ĠR",
        "e"
      ],
      [
        "Ġer",
        "st"
      ],
      [
        "Ġk",
        "ein"
      ],
      [
        "ĠĠĠĠ",
        "ĠĠĠ"
      ],
      [
        "ĠZ",
        "u"
      ],
      [
        "p",
        "p"
      ],
      [
        "Ã¤",
        "u"
      ],
      [
        "ĠGe",
        "w"
      ],
      [
        "ĠFre",
        "und"
      ],
      [
        "t",
        "t"
      ],
      [
        "Ġw",
        "Ã¤"
      ],
      [
        "k",
        "e"
      ],
      [
        "Ġb",
        "in"
      ],
      [
        "Ġh",
        "o"
      ],
      [
        "Ġdies",
        "em"
      ],
      [
        "ĠA",
        "b"
      ],
      [
        "etz",
        "te"
      ],
      [
        "v",
        "or"
      ],
      [
        "ie",
        "f"
      ],
      [
        "f",
        "ahr"
      ],
      [
        "or",
        "den"
      ],
      [
        "sa",
        "mmen"
      ],
      [
        "ĠGe",
        "b"
      ],
      [
        "Ġwar",
        "en"
      ],
      [
        "Ġs",
        "agte"
      ],
      [
        "ĠHer",
        "r"
      ],
      [
        "g",
        "esch"
      ],
      [
        "un",
        "st"
      ],
      [
        "ĠD",
        "en"
      ],
      [
        "Ġj",
        "a"
      ],
      [
        "isch",
        "e"
      ],
      [
        "i",
        "der"
      ],
      [
        "Ġf",
        "ort"
      ],
      [
        "Ġuns",
        "er"
      ],
      [
        "ch",
        "es"
      ],
      [
        "Ġre",
        "cht"
      ],
      [
        "o",
        "g"
      ],
      [
        "Ġw",
        "Ã¼r"
      ],
      [
        "enn",
        "en"
      ],
      [
        "Ġein",
        "es"
      ],
      [
        "ig",
        "t"
      ],
      [
        "Ġdie",
        "sen"
      ],
      [
        "ĠH",
        "o"
      ],
      [
        "Ġg",
        "ut"
      ],
      [
        "ĠS",
        "p"
      ],
      [
        "ĠJ",
        "ahr"
      ],
      [
        "Ġa",
        "l"
      ],
      [
        "Ġf",
        "Ã¼hl"
      ],
      [
        "ĠD",
        "u"
      ],
      [
        "ĠU",
        "m"
      ],
      [
        "Ġwel",
        "che"
      ],
      [
        "ĠSch",
        "l"
      ],
      [
        "Ġzu",
        "sammen"
      ],
      [
        "Ġ",
        "Ã"
      ],
      [
        "p",
        "t"
      ],
      [
        "Ġl",
        "e"
      ],
      [
        "ĠHer",
        "z"
      ],
      [
        "Ã¼",
        "s"
      ],
      [
        "Ã¤",
        "ft"
      ],
      [
        "ll",
        "t"
      ],
      [
        "ach",
        "e"
      ],
      [
        "w",
        "Ã¤rt"
      ],
      [
        "ei",
        "m"
      ],
      [
        "Ġm",
        "achen"
      ],
      [
        "er",
        "st"
      ],
      [
        "Ġdas",
        "s"
      ],
      [
        "o",
        "hn"
      ],
      [
        "ĠG",
        "el"
      ],
      [
        "ĠF",
        "l"
      ],
      [
        "Ġein",
        "mal"
      ],
      [
        "eu",
        "ch"
      ],
      [
        "ĠN",
        "at"
      ],
      [
        "Ġ",
        "eigen"
      ],
      [
        "ĠW",
        "enn"
      ],
      [
        "Ġdies",
        "es"
      ],
      [
        "on",
        "der"
      ],
      [
        "ĠD",
        "a"
      ],
      [
        "Ġg",
        "em"
      ],
      [
        "Ġo",
        "b"
      ],
      [
        "Ġwen",
        "ig"
      ],
      [
        "ĠT",
        "ag"
      ],
      [
        "eu",
        "te"
      ],
      [
        "ĠV",
        "ater"
      ],
      [
        "t",
        "lich"
      ],
      [
        "Ġf",
        "rei"
      ],
      [
        "Ġver",
        "w"
      ],
      [
        "ge",
        "gen"
      ],
      [
        "k",
        "ann"
      ],
      [
        "ge",
        "f"
      ],
      [
        "Ġsch",
        "ien"
      ],
      [
        "Ġwei",
        "ÃŁ"
      ],
      [
        "z",
        "t"
      ],
      [
        "ĠN",
        "un"
      ],
      [
        "i",
        "ÃŁ"
      ],
      [
        "l",
        "er"
      ],
      [
        "ĠK",
        "r"
      ],
      [
        "Ġihr",
        "en"
      ],
      [
        "ĠR",
        "ei"
      ],
      [
        "n",
        "a"
      ],
      [
        "Ġsoll",
        "te"
      ],
      [
        "Ġ",
        "Ã¼"
      ],
      [
        "ck",
        "en"
      ],
      [
        "u",
        "h"
      ],
      [
        "Ġwar",
        "d"
      ],
      [
        "an",
        "den"
      ],
      [
        "Ġ",
        "eben"
      ],
      [
        "or",
        "gen"
      ],
      [
        "ge",
        "b"
      ],
      [
        "ĠCh",
        "ar"
      ],
      [
        "st",
        "Ã¤n"
      ],
      [
        "Ġh",
        "al"
      ],
      [
        "ĠAugen",
        "blick"
      ],
      [
        "Ġv",
        "om"
      ],
      [
        "Ġb",
        "er"
      ],
      [
        "ĠF",
        "el"
      ],
      [
        "Ġall",
        "ein"
      ],
      [
        "s",
        "p"
      ],
      [
        "\"",
        ","
      ],
      [
        "ĠB",
        "es"
      ],
      [
        "m",
        "it"
      ],
      [
        "ar",
        "d"
      ],
      [
        "d",
        "u"
      ],
      [
        "Ġs",
        "ah"
      ],
      [
        "ĠEn",
        "t"
      ],
      [
        "Ġgen",
        "ug"
      ],
      [
        "ĠS",
        "tr"
      ],
      [
        "Ġk",
        "am"
      ],
      [
        "Ã¤",
        "hr"
      ],
      [
        "sch",
        "l"
      ],
      [
        "Ã¶",
        "t"
      ],
      [
        "k",
        "l"
      ],
      [
        "lich",
        "keit"
      ],
      [
        "s",
        "o"
      ],
      [
        "Ġw",
        "eil"
      ],
      [
        "Ġbe",
        "f"
      ],
      [
        "m",
        "ann"
      ],
      [
        "Ã¤",
        "d"
      ],
      [
        "Ġin",
        "dem"
      ],
      [
        "ĠA",
        "m"
      ],
      [
        "Ġmein",
        "er"
      ],
      [
        "Ġz",
        "wei"
      ],
      [
        "Ġg",
        "lÃ¼ck"
      ],
      [
        "Ġall",
        "en"
      ],
      [
        "w",
        "e"
      ],
      [
        "Ġs",
        "agen"
      ],
      [
        "ĠwÃ¤",
        "re"
      ],
      [
        "Ã¤",
        "hl"
      ],
      [
        "Ã¤",
        "um"
      ],
      [
        "Ã¶",
        "ÃŁ"
      ],
      [
        "Ġ",
        "("
      ],
      [
        "ĠUn",
        "ter"
      ],
      [
        "st",
        "er"
      ],
      [
        "ei",
        "te"
      ],
      [
        "ag",
        "t"
      ],
      [
        "ĠO",
        "tt"
      ],
      [
        "e",
        "hen"
      ],
      [
        "ie",
        "den"
      ],
      [
        "Ġgro",
        "ÃŁen"
      ],
      [
        "ck",
        "t"
      ],
      [
        "ĠkÃ¶n",
        "nen"
      ],
      [
        "ĠhÃ¤t",
        "te"
      ],
      [
        "i",
        "k"
      ],
      [
        "Ġd",
        "ein"
      ],
      [
        "ĠNat",
        "ur"
      ],
      [
        "ĠOtt",
        "il"
      ],
      [
        "ĠG",
        "lÃ¼ck"
      ],
      [
        "os",
        "sen"
      ],
      [
        "u",
        "cht"
      ],
      [
        "un",
        "ter"
      ],
      [
        "Ã¼n",
        "st"
      ],
      [
        "ot",
        "t"
      ],
      [
        "Ġw",
        "ur"
      ],
      [
        "i",
        "mmer"
      ],
      [
        "m",
        "en"
      ],
      [
        "ben",
        "d"
      ],
      [
        "t",
        "eil"
      ],
      [
        "Ġb",
        "em"
      ],
      [
        "Ġg",
        "lau"
      ],
      [
        "Ġihr",
        "er"
      ],
      [
        "ĠH",
        "aus"
      ],
      [
        "Ġwoll",
        "te"
      ],
      [
        "n",
        "ung"
      ],
      [
        "ĠH",
        "ier"
      ],
      [
        "ĠGe",
        "f"
      ],
      [
        "o",
        "gen"
      ],
      [
        "Ġihn",
        "en"
      ],
      [
        "Ġ",
        "em"
      ],
      [
        "Ġh",
        "ei"
      ],
      [
        "f",
        "ern"
      ],
      [
        "an",
        "k"
      ],
      [
        "h",
        "aft"
      ],
      [
        "Ġf",
        "re"
      ],
      [
        "ĠA",
        "rt"
      ],
      [
        "h",
        "in"
      ],
      [
        "u",
        "te"
      ],
      [
        "Ġher",
        "vor"
      ],
      [
        "Ġk",
        "omm"
      ],
      [
        "hn",
        "en"
      ],
      [
        "Ġsein",
        "em"
      ],
      [
        "Ġje",
        "der"
      ],
      [
        "Ġer",
        "f"
      ],
      [
        "ĠP",
        "l"
      ],
      [
        "Ġge",
        "b"
      ],
      [
        "a",
        "llen"
      ],
      [
        "ĠD",
        "och"
      ],
      [
        "ĠG",
        "eist"
      ],
      [
        "Ġk",
        "eine"
      ],
      [
        "Ġbes",
        "onder"
      ],
      [
        "ĠK",
        "unst"
      ],
      [
        "Ġall",
        "er"
      ],
      [
        "ier",
        "en"
      ],
      [
        "Ġein",
        "ige"
      ],
      [
        "Ġ",
        "1"
      ],
      [
        "Ã¼n",
        "sch"
      ],
      [
        "Ġn",
        "Ã¤"
      ],
      [
        "Ã¤",
        "ÃŁ"
      ],
      [
        "Ġmein",
        "en"
      ],
      [
        "Ġver",
        "m"
      ],
      [
        "ĠK",
        "l"
      ],
      [
        "ĠN",
        "acht"
      ],
      [
        "Ġg",
        "ern"
      ],
      [
        "Ġer",
        "sch"
      ],
      [
        "ehr",
        "en"
      ],
      [
        "l",
        "ot"
      ],
      [
        "Ġver",
        "b"
      ],
      [
        "ĠGe",
        "d"
      ],
      [
        "Ã¶",
        "ll"
      ],
      [
        "a",
        "hl"
      ],
      [
        "eich",
        "en"
      ],
      [
        "ĠhÃ¶",
        "ch"
      ],
      [
        "ĠS",
        "te"
      ],
      [
        "Ġander",
        "e"
      ],
      [
        "it",
        "z"
      ],
      [
        "ĠB",
        "er"
      ],
      [
        "Ġo",
        "ft"
      ],
      [
        "s",
        "icht"
      ],
      [
        "m",
        "e"
      ],
      [
        "Ġfr",
        "Ã¼"
      ],
      [
        "ĠChar",
        "lot"
      ],
      [
        "h",
        "Ã¤lt"
      ],
      [
        "i",
        "llen"
      ],
      [
        "Ġw",
        "e"
      ],
      [
        "Ġw",
        "under"
      ],
      [
        "w",
        "ischen"
      ],
      [
        "Ġd",
        "ann"
      ],
      [
        "re",
        "chen"
      ],
      [
        "Ġv",
        "oll"
      ],
      [
        "ĠM",
        "a"
      ],
      [
        "g",
        "em"
      ],
      [
        "v",
        "er"
      ],
      [
        "ein",
        "t"
      ],
      [
        "Ġlie",
        "ÃŁ"
      ],
      [
        "at",
        "t"
      ],
      [
        "och",
        "en"
      ],
      [
        "Ġwei",
        "ter"
      ],
      [
        "ĠGes",
        "ell"
      ],
      [
        "ĠL",
        "u"
      ],
      [
        "mal",
        "s"
      ],
      [
        "Ġein",
        "z"
      ],
      [
        "at",
        "z"
      ],
      [
        "Ġsch",
        "l"
      ],
      [
        "Ã¤n",
        "g"
      ],
      [
        "Ã¼",
        "ÃŁ"
      ],
      [
        "m",
        "a"
      ],
      [
        "Ġi",
        "r"
      ],
      [
        "Ġson",
        "st"
      ],
      [
        "Ġ",
        "euch"
      ],
      [
        "Ġer",
        "w"
      ],
      [
        "Ġl",
        "assen"
      ],
      [
        "Ġs",
        "pr"
      ],
      [
        "Ġgr",
        "Ã¶ÃŁ"
      ],
      [
        "ch",
        "ten"
      ],
      [
        "Ġb",
        "lei"
      ],
      [
        "ĠW",
        "eg"
      ],
      [
        "f",
        "all"
      ],
      [
        "Ġhat",
        "ten"
      ],
      [
        "Ġn",
        "a"
      ],
      [
        "ge",
        "w"
      ],
      [
        "a",
        "de"
      ],
      [
        "an",
        "ken"
      ],
      [
        "ĠE",
        "du"
      ],
      [
        "te",
        "te"
      ],
      [
        "n",
        "et"
      ],
      [
        "ĠA",
        "ls"
      ],
      [
        "Ġf",
        "inden"
      ],
      [
        "b",
        "te"
      ],
      [
        "ĠW",
        "e"
      ],
      [
        "v",
        "on"
      ],
      [
        "ad",
        "t"
      ],
      [
        "ĠWei",
        "se"
      ],
      [
        "ĠH",
        "Ã¶"
      ],
      [
        "Ġem",
        "pf"
      ],
      [
        "w",
        "Ã¼r"
      ],
      [
        "ĠB",
        "eg"
      ],
      [
        "Ġl",
        "ei"
      ],
      [
        "Ġmein",
        "em"
      ],
      [
        "a",
        "ten"
      ],
      [
        "ĠG",
        "en"
      ],
      [
        "ĠG",
        "ott"
      ],
      [
        "Ġf",
        "and"
      ],
      [
        "ĠHau",
        "pt"
      ],
      [
        "d",
        "ien"
      ],
      [
        "o",
        "hl"
      ],
      [
        "Ġ",
        "["
      ],
      [
        "ier",
        "t"
      ],
      [
        "Ã¼ck",
        "en"
      ],
      [
        "ĠO",
        "r"
      ],
      [
        "ĠGesell",
        "schaft"
      ],
      [
        "ig",
        "es"
      ],
      [
        "ĠT",
        "eil"
      ],
      [
        "m",
        "er"
      ],
      [
        "z",
        "Ã¤hl"
      ],
      [
        "Ġbe",
        "w"
      ],
      [
        "imm",
        "el"
      ],
      [
        "Ġg",
        "ing"
      ],
      [
        "Ġ",
        "Ã¤"
      ],
      [
        "ge",
        "hen"
      ],
      [
        "an",
        "de"
      ],
      [
        "au",
        "t"
      ],
      [
        "iel",
        "t"
      ],
      [
        "Ġl",
        "ange"
      ],
      [
        "ĠkÃ¶n",
        "n"
      ],
      [
        "Ġbesonder",
        "s"
      ],
      [
        "f",
        "te"
      ],
      [
        "Ġb",
        "l"
      ],
      [
        "e",
        "hmen"
      ],
      [
        "ĠG",
        "em"
      ],
      [
        "ĠF",
        "Ã¼r"
      ],
      [
        "ĠT",
        "age"
      ],
      [
        "ĠSch",
        "w"
      ],
      [
        "ĠM",
        "on"
      ],
      [
        "ach",
        "ten"
      ],
      [
        "Ġer",
        "sten"
      ],
      [
        "Ġin",
        "s"
      ],
      [
        "Ġb",
        "el"
      ],
      [
        "a",
        "mm"
      ],
      [
        "ĠFre",
        "u"
      ],
      [
        "z",
        "ie"
      ],
      [
        "Ġf",
        "Ã¼hr"
      ],
      [
        "Ġl",
        "eicht"
      ],
      [
        "hal",
        "t"
      ],
      [
        "ĠÃ¼",
        "br"
      ],
      [
        "ĠA",
        "ll"
      ],
      [
        "ge",
        "g"
      ],
      [
        "ĠV",
        "on"
      ],
      [
        "end",
        "lich"
      ],
      [
        "eg",
        "t"
      ],
      [
        "f",
        "l"
      ],
      [
        "ĠB",
        "ei"
      ],
      [
        "ĠZ",
        "ust"
      ],
      [
        "o",
        "ph"
      ],
      [
        "st",
        "and"
      ],
      [
        "ĠÃ",
        "ľ"
      ],
      [
        "b",
        "el"
      ],
      [
        "o",
        "ÃŁ"
      ],
      [
        "u",
        "hr"
      ],
      [
        "ich",
        "ten"
      ],
      [
        "eu",
        "t"
      ],
      [
        "ĠSt",
        "adt"
      ],
      [
        "h",
        "el"
      ],
      [
        "ein",
        "ander"
      ],
      [
        "Ġj",
        "etzt"
      ],
      [
        "lich",
        "es"
      ],
      [
        "ung",
        "s"
      ],
      [
        "au",
        "st"
      ],
      [
        "e",
        "hm"
      ],
      [
        "in",
        "e"
      ],
      [
        "se",
        "hen"
      ],
      [
        "enn",
        "t"
      ],
      [
        "ĠAu",
        "ch"
      ],
      [
        "Ġb",
        "etr"
      ],
      [
        "ĠM",
        "ut"
      ],
      [
        "a",
        "ben"
      ],
      [
        "Ġz",
        "ie"
      ],
      [
        "ĠMen",
        "sch"
      ],
      [
        "Ġw",
        "ahr"
      ],
      [
        "in",
        "gt"
      ],
      [
        "ie",
        "ll"
      ],
      [
        "it",
        "ten"
      ],
      [
        "ĠB",
        "etr"
      ],
      [
        "ĠwÃ¼r",
        "de"
      ],
      [
        "es",
        "s"
      ],
      [
        "Ġh",
        "Ã¶r"
      ],
      [
        "Ġl",
        "Ã¤"
      ],
      [
        "iell",
        "eicht"
      ],
      [
        "Ġm",
        "ag"
      ],
      [
        "ĠM",
        "e"
      ],
      [
        "ĠM",
        "ein"
      ],
      [
        "ĠB",
        "ild"
      ],
      [
        "Ġk",
        "ommen"
      ],
      [
        "Ġso",
        "gleich"
      ],
      [
        "eu",
        "g"
      ],
      [
        "Ġvers",
        "etzte"
      ],
      [
        "Ġsol",
        "chen"
      ],
      [
        "ĠgroÃŁ",
        "e"
      ],
      [
        "in",
        "nen"
      ],
      [
        "ĠL",
        "and"
      ],
      [
        "ĠP",
        "r"
      ],
      [
        "ĠS",
        "eite"
      ],
      [
        "der",
        "t"
      ],
      [
        "ĠH",
        "immel"
      ],
      [
        "Ġher",
        "r"
      ],
      [
        "Ġw",
        "eit"
      ],
      [
        "Ġm",
        "Ã¼s"
      ],
      [
        "h",
        "ol"
      ],
      [
        "o",
        "llen"
      ],
      [
        "ĠEdu",
        "ard"
      ],
      [
        "de",
        "uten"
      ],
      [
        "ĠK",
        "in"
      ],
      [
        "ri",
        "ff"
      ],
      [
        "i",
        "d"
      ],
      [
        "Ġzu",
        "l"
      ],
      [
        "ĠG",
        "est"
      ],
      [
        "g",
        "r"
      ],
      [
        "g",
        "est"
      ],
      [
        "Ġganz",
        "en"
      ],
      [
        "Ã¶",
        "hn"
      ],
      [
        "Ġge",
        "ht"
      ],
      [
        "Ġihr",
        "em"
      ],
      [
        "ne",
        "hmen"
      ],
      [
        "Ġkomm",
        "t"
      ],
      [
        "Ġf",
        "ol"
      ],
      [
        "Ġt",
        "un"
      ],
      [
        "e",
        "hl"
      ],
      [
        "g",
        "l"
      ],
      [
        "k",
        "r"
      ],
      [
        "Ġk",
        "aum"
      ],
      [
        "Ġzul",
        "etzt"
      ],
      [
        "Ġs",
        "u"
      ],
      [
        "Ġw",
        "eg"
      ],
      [
        "ĠK",
        "ind"
      ],
      [
        "a",
        "un"
      ],
      [
        "Ġdes",
        "sen"
      ],
      [
        "n",
        "Ã¼"
      ],
      [
        "d",
        "urch"
      ],
      [
        "Ã¤",
        "cht"
      ],
      [
        "Ġson",
        "dern"
      ],
      [
        "ĠR",
        "om"
      ],
      [
        "Ġganz",
        "e"
      ],
      [
        "il",
        "hel"
      ],
      [
        "ist",
        "oph"
      ],
      [
        "Ġwer",
        "de"
      ],
      [
        "eist",
        "er"
      ],
      [
        "f",
        "Ã¼hr"
      ],
      [
        "ie",
        "ben"
      ],
      [
        "d",
        "och"
      ],
      [
        "i",
        "bt"
      ],
      [
        "Ġ",
        "endlich"
      ],
      [
        "Ġsie",
        "ht"
      ],
      [
        "sch",
        "ein"
      ],
      [
        "egen",
        "heit"
      ],
      [
        "Ġfre",
        "und"
      ],
      [
        "ĠWir",
        "t"
      ],
      [
        "ĠglÃ¼ck",
        "lich"
      ],
      [
        "ĠA",
        "ber"
      ],
      [
        "Ġent",
        "sch"
      ],
      [
        "kann",
        "t"
      ],
      [
        "Ã¤d",
        "chen"
      ],
      [
        "el",
        "es"
      ],
      [
        ".",
        "--"
      ],
      [
        "u",
        "gen"
      ],
      [
        "Ġw",
        "or"
      ],
      [
        "ĠW",
        "er"
      ],
      [
        "Ġge",
        "ben"
      ],
      [
        "ĠFre",
        "unde"
      ],
      [
        "et",
        "t"
      ],
      [
        "âĢľ",
        "."
      ],
      [
        "s",
        "pr"
      ],
      [
        "Ġz",
        "wischen"
      ],
      [
        "Ġb",
        "est"
      ],
      [
        "ĠJ",
        "a"
      ],
      [
        "istoph",
        "eles"
      ],
      [
        "!",
        "\""
      ],
      [
        "ĠR",
        "u"
      ],
      [
        "ph",
        "istopheles"
      ],
      [
        "d",
        "igen"
      ],
      [
        "ich",
        "te"
      ],
      [
        "etz",
        "ten"
      ],
      [
        "ilhel",
        "m"
      ],
      [
        "Ġl",
        "eben"
      ],
      [
        "h",
        "eim"
      ],
      [
        "w",
        "erk"
      ],
      [
        "Ġje",
        "doch"
      ],
      [
        "ĠBl",
        "ick"
      ],
      [
        "ie",
        "d"
      ],
      [
        "Ġer",
        "g"
      ],
      [
        "hÃ¤lt",
        "nis"
      ],
      [
        "ĠLeben",
        "s"
      ],
      [
        "Ã¶",
        "rt"
      ],
      [
        "au",
        "er"
      ],
      [
        "m",
        "ut"
      ],
      [
        "o",
        "b"
      ],
      [
        "Ġgew",
        "esen"
      ],
      [
        "m",
        "ehr"
      ],
      [
        "ĠS",
        "on"
      ],
      [
        "Ġge",
        "hen"
      ],
      [
        "g",
        "ar"
      ],
      [
        "ĠK",
        "o"
      ],
      [
        "ĠmÃ¶",
        "chte"
      ],
      [
        "r",
        "eich"
      ],
      [
        "as",
        "s"
      ],
      [
        "am",
        "en"
      ],
      [
        ".",
        ")"
      ],
      [
        "i",
        "o"
      ],
      [
        "es",
        "ten"
      ],
      [
        "ĠS",
        "inn"
      ],
      [
        "ĠP",
        "ers"
      ],
      [
        "Ġr",
        "ief"
      ],
      [
        "r",
        "itt"
      ],
      [
        "Ġer",
        "h"
      ],
      [
        "Ġan",
        "zu"
      ],
      [
        "m",
        "pf"
      ],
      [
        "ĠM",
        "Ã¤dchen"
      ],
      [
        "Ġwir",
        "k"
      ],
      [
        "br",
        "acht"
      ],
      [
        "ĠWas",
        "ser"
      ],
      [
        "m",
        "erk"
      ],
      [
        "u",
        "ck"
      ],
      [
        "en",
        "den"
      ],
      [
        "Ġst",
        "ill"
      ],
      [
        "ĠB",
        "rie"
      ],
      [
        "Ġver",
        "g"
      ],
      [
        "ĠK",
        "Ã¶n"
      ],
      [
        "Ġbe",
        "h"
      ],
      [
        "ĠSch",
        "Ã¶n"
      ],
      [
        "M",
        "e"
      ],
      [
        "ĠW",
        "or"
      ],
      [
        "Me",
        "phistopheles"
      ],
      [
        "Ġ",
        "rei"
      ],
      [
        "Ġw",
        "ider"
      ],
      [
        "al",
        "ten"
      ],
      [
        "Ġd",
        "ort"
      ],
      [
        "ĠW",
        "ilhelm"
      ],
      [
        "Ġl",
        "ang"
      ],
      [
        "Ġbe",
        "d"
      ],
      [
        "âĢľ",
        ","
      ],
      [
        "f",
        "el"
      ],
      [
        "z",
        "ogen"
      ],
      [
        "ĠM",
        "ar"
      ],
      [
        "ĠN",
        "icht"
      ],
      [
        "Ġz",
        "war"
      ],
      [
        "ĠB",
        "o"
      ],
      [
        "re",
        "ten"
      ],
      [
        "ĠL",
        "e"
      ],
      [
        "etz",
        "en"
      ],
      [
        "ĠFr",
        "au"
      ],
      [
        "h",
        "af"
      ],
      [
        "t",
        "an"
      ],
      [
        "Ġer",
        "n"
      ],
      [
        "ĠGef",
        "Ã¼hl"
      ],
      [
        "d",
        "ann"
      ],
      [
        "ĠA",
        "bend"
      ],
      [
        "ĠCharlot",
        "te"
      ],
      [
        "Ġir",
        "gend"
      ],
      [
        "te",
        "m"
      ],
      [
        "Ġg",
        "ab"
      ],
      [
        "ĠLie",
        "be"
      ],
      [
        "qu",
        "em"
      ],
      [
        "k",
        "eiten"
      ],
      [
        "Ġm",
        "acht"
      ],
      [
        "Ġan",
        "ge"
      ],
      [
        "ĠJ",
        "u"
      ],
      [
        "fahr",
        "en"
      ],
      [
        "d",
        "lich"
      ],
      [
        "Ġw",
        "orden"
      ],
      [
        "Ġv",
        "ielleicht"
      ],
      [
        "or",
        "g"
      ],
      [
        "Ġf",
        "in"
      ],
      [
        "ĠK",
        "ap"
      ],
      [
        "ĠN",
        "e"
      ],
      [
        "Ġg",
        "est"
      ],
      [
        "ĠG",
        "er"
      ],
      [
        "Ã¶",
        "ff"
      ],
      [
        "Ġr",
        "uh"
      ],
      [
        "ĠAn",
        "t"
      ],
      [
        "ĠnÃ¤",
        "her"
      ],
      [
        "es",
        "te"
      ],
      [
        "den",
        "ken"
      ],
      [
        "Ġwo",
        "llen"
      ],
      [
        "ĠSe",
        "el"
      ],
      [
        "Ġle",
        "b"
      ],
      [
        "a",
        "ar"
      ],
      [
        "Ġ",
        "eil"
      ],
      [
        "Ġge",
        "tr"
      ],
      [
        "Ġda",
        "von"
      ],
      [
        "ĠT",
        "o"
      ],
      [
        "Ġun",
        "be"
      ],
      [
        "aÃŁ",
        "t"
      ],
      [
        "ĠschÃ¶n",
        "e"
      ],
      [
        "Ġg",
        "uten"
      ],
      [
        "ĠW",
        "ort"
      ],
      [
        "Ġges",
        "ehen"
      ],
      [
        "Ã¼hr",
        "t"
      ],
      [
        "ĠHau",
        "se"
      ],
      [
        "ĠHo",
        "f"
      ],
      [
        "an",
        "t"
      ],
      [
        "Ġk",
        "ur"
      ],
      [
        "ĠVer",
        "w"
      ],
      [
        "ĠHer",
        "zen"
      ],
      [
        "Ġsol",
        "che"
      ],
      [
        "ĠPf",
        "er"
      ],
      [
        "Ġver",
        "d"
      ],
      [
        "Ġent",
        "gegen"
      ],
      [
        "imm",
        "t"
      ],
      [
        "Ġste",
        "ht"
      ],
      [
        "merk",
        "sam"
      ],
      [
        "Ġjen",
        "e"
      ],
      [
        "Ġauf",
        "s"
      ],
      [
        "gleich",
        "en"
      ],
      [
        "Ã¼",
        "l"
      ],
      [
        "ĠG",
        "l"
      ],
      [
        "Ġden",
        "ken"
      ],
      [
        "F",
        "aust"
      ],
      [
        "au",
        "sen"
      ],
      [
        "ĠFr",
        "auen"
      ],
      [
        "us",
        "s"
      ],
      [
        "Ġnie",
        "der"
      ],
      [
        "w",
        "er"
      ],
      [
        "as",
        "se"
      ],
      [
        "ĠE",
        "l"
      ],
      [
        "Ġha",
        "b"
      ],
      [
        "Ġein",
        "iger"
      ],
      [
        "ehr",
        "t"
      ],
      [
        "ei",
        "gt"
      ],
      [
        "st",
        "r"
      ],
      [
        "on",
        "en"
      ],
      [
        "Ġr",
        "ein"
      ],
      [
        "Ġe",
        "d"
      ],
      [
        "g",
        "lÃ¼ck"
      ],
      [
        "ĠV",
        "ol"
      ],
      [
        "ĠVer",
        "hÃ¤ltnis"
      ],
      [
        "Ġun",
        "ge"
      ],
      [
        "Ġden",
        "en"
      ],
      [
        "ĠP",
        "ro"
      ],
      [
        "Ġaus",
        "zu"
      ],
      [
        "wÃ¤rt",
        "s"
      ],
      [
        "g",
        "ang"
      ],
      [
        "Ġjen",
        "er"
      ],
      [
        "m",
        "t"
      ],
      [
        "in",
        "ne"
      ],
      [
        "Ã¼",
        "gel"
      ],
      [
        "it",
        "zen"
      ],
      [
        "ĠM",
        "Ã¤n"
      ],
      [
        "des",
        "sen"
      ],
      [
        "Ġg",
        "ibt"
      ],
      [
        "Ġsch",
        "eint"
      ],
      [
        "Ġher",
        "aus"
      ],
      [
        "sel",
        "ben"
      ],
      [
        "ĠOttil",
        "ien"
      ],
      [
        "f",
        "er"
      ],
      [
        "Ġw",
        "Ã¼nsch"
      ],
      [
        "Ġge",
        "d"
      ],
      [
        "Ã¤n",
        "de"
      ],
      [
        "Ã¤n",
        "gt"
      ],
      [
        "Ġw",
        "uÃŁ"
      ],
      [
        "Ġh",
        "eil"
      ],
      [
        "ĠschÃ¶n",
        "en"
      ],
      [
        "Ġm",
        "achte"
      ],
      [
        "ĠG",
        "ar"
      ],
      [
        "or",
        "en"
      ],
      [
        "ĠB",
        "esch"
      ],
      [
        "ĠK",
        "a"
      ],
      [
        "Ġauf",
        "ge"
      ],
      [
        "sten",
        "s"
      ],
      [
        "Ġhin",
        "ter"
      ],
      [
        "a",
        "den"
      ],
      [
        "o",
        "ck"
      ],
      [
        "Ġw",
        "issen"
      ],
      [
        "ĠD",
        "enn"
      ],
      [
        "Ġf",
        "l"
      ],
      [
        "ĠDie",
        "se"
      ],
      [
        "ul",
        "d"
      ],
      [
        "ul",
        "dig"
      ],
      [
        "Ġzu",
        "gleich"
      ],
      [
        "ĠAl",
        "c"
      ],
      [
        "Ġan",
        "gen"
      ],
      [
        "Ġda",
        "mit"
      ],
      [
        "ĠMut",
        "ter"
      ],
      [
        "z",
        "eich"
      ],
      [
        "ĠI",
        "hnen"
      ],
      [
        "Ġent",
        "fern"
      ],
      [
        "ĠmuÃŁ",
        "te"
      ],
      [
        "Ġ",
        "-"
      ],
      [
        "Ġder",
        "en"
      ],
      [
        "Ġbei",
        "den"
      ],
      [
        "Ġal",
        "ten"
      ],
      [
        "Ġa",
        "r"
      ],
      [
        "Ġha",
        "st"
      ],
      [
        "Ġgew",
        "is"
      ],
      [
        "Ġst",
        "and"
      ],
      [
        "Ġwur",
        "de"
      ],
      [
        "Ġbe",
        "deuten"
      ],
      [
        "rei",
        "ben"
      ],
      [
        "ĠlÃ¤",
        "ÃŁt"
      ],
      [
        "un",
        "k"
      ],
      [
        "Ã¤",
        "ll"
      ],
      [
        "at",
        "ion"
      ],
      [
        "eu",
        "er"
      ],
      [
        "Ġlie",
        "b"
      ],
      [
        "lie",
        "ÃŁen"
      ],
      [
        "Ġdar",
        "f"
      ],
      [
        "Ġdar",
        "auf"
      ],
      [
        "ĠL",
        "ust"
      ],
      [
        "Ġgew",
        "Ã¶hn"
      ],
      [
        "pf",
        "l"
      ],
      [
        "ĠkÃ¶nn",
        "te"
      ],
      [
        "Ġg",
        "ute"
      ],
      [
        "it",
        "te"
      ],
      [
        "de",
        "te"
      ],
      [
        "ste",
        "hen"
      ],
      [
        "hal",
        "b"
      ],
      [
        "ĠGegen",
        "d"
      ],
      [
        "Ġeigen",
        "tlich"
      ],
      [
        "b",
        "ild"
      ],
      [
        "Ġer",
        "zÃ¤hl"
      ],
      [
        "re",
        "ff"
      ],
      [
        "Ġwel",
        "ches"
      ],
      [
        "ĠĠĠĠĠĠĠĠĠĠĠĠĠĠĠĠ",
        "ĠĠĠĠĠĠĠĠ"
      ],
      [
        "na",
        "hm"
      ],
      [
        "ĠFreu",
        "de"
      ],
      [
        "a",
        "k"
      ],
      [
        "m",
        "and"
      ],
      [
        "Ġd",
        "rei"
      ],
      [
        "Ġv",
        "Ã¶ll"
      ],
      [
        "ĠZ",
        "immer"
      ],
      [
        "ĠVer",
        "l"
      ],
      [
        "it",
        "ter"
      ],
      [
        "ĠK",
        "Ã¼nst"
      ],
      [
        "ĠEn",
        "de"
      ],
      [
        "ĠOttil",
        "ie"
      ],
      [
        "Ġwur",
        "den"
      ],
      [
        "a",
        "ck"
      ],
      [
        "Ġs",
        "tr"
      ],
      [
        "in",
        "ge"
      ],
      [
        "al",
        "er"
      ],
      [
        "Ġuns",
        "ere"
      ],
      [
        "war",
        "t"
      ],
      [
        "r",
        "at"
      ],
      [
        "Ġl",
        "os"
      ],
      [
        "ĠmÃ¶",
        "glich"
      ],
      [
        "eig",
        "ung"
      ],
      [
        "ch",
        "em"
      ],
      [
        "Ġr",
        "eich"
      ],
      [
        "ĠHo",
        "ff"
      ],
      [
        "ĠÃ¤",
        "uÃŁ"
      ],
      [
        "ĠSeel",
        "e"
      ],
      [
        "Ġun",
        "er"
      ],
      [
        "al",
        "s"
      ],
      [
        "at",
        "ten"
      ],
      [
        "Ġlie",
        "ben"
      ],
      [
        "Ġste",
        "hen"
      ],
      [
        "Ġfrei",
        "lich"
      ],
      [
        "ĠF",
        "uÃŁ"
      ],
      [
        "Ġsein",
        "es"
      ],
      [
        "ste",
        "llen"
      ],
      [
        "ĠW",
        "esen"
      ],
      [
        "Ġgem",
        "acht"
      ],
      [
        "i",
        "ff"
      ],
      [
        "ĠVer",
        "g"
      ],
      [
        "ĠÃľ",
        "ber"
      ],
      [
        "i",
        "z"
      ],
      [
        "Ġman",
        "ches"
      ],
      [
        "Ã¼ck",
        "t"
      ],
      [
        "Ġger",
        "ade"
      ],
      [
        "ĠAlc",
        "est"
      ],
      [
        "ie",
        "b"
      ],
      [
        "or",
        "d"
      ],
      [
        "Ġf",
        "est"
      ],
      [
        "Ġf",
        "uhr"
      ],
      [
        "Ġkl",
        "einen"
      ],
      [
        "ĠhÃ¶ch",
        "st"
      ],
      [
        "ĠKin",
        "der"
      ],
      [
        "Q",
        "u"
      ],
      [
        "a",
        "v"
      ],
      [
        "z",
        "Ã¼"
      ],
      [
        "ĠT",
        "as"
      ],
      [
        "Ġt",
        "ief"
      ],
      [
        "Ġgew",
        "orden"
      ],
      [
        "Ġje",
        "den"
      ],
      [
        "ĠSo",
        "ph"
      ],
      [
        "f",
        "rie"
      ],
      [
        "r",
        "en"
      ],
      [
        "ĠSo",
        "hn"
      ],
      [
        "Ġneu",
        "e"
      ],
      [
        "il",
        "den"
      ],
      [
        "wei",
        "se"
      ],
      [
        "I",
        "ch"
      ],
      [
        "e",
        "hn"
      ],
      [
        "r",
        "icht"
      ],
      [
        "Ġ",
        "2"
      ],
      [
        "Ġw",
        "Ã¤r"
      ],
      [
        "Ġb",
        "et"
      ],
      [
        "au",
        "ern"
      ],
      [
        "Ġall",
        "gem"
      ],
      [
        "Ġkl",
        "ein"
      ],
      [
        "Ġbesch",
        "Ã¤ft"
      ],
      [
        "a",
        "ffen"
      ],
      [
        "w",
        "end"
      ],
      [
        "Ġ",
        "Qu"
      ],
      [
        "ich",
        "tet"
      ],
      [
        "ĠS",
        "pr"
      ],
      [
        "Ġver",
        "tr"
      ],
      [
        "Ġall",
        "em"
      ],
      [
        "ĠSt",
        "unden"
      ],
      [
        "Ã¼n",
        "ft"
      ],
      [
        "ne",
        "te"
      ],
      [
        "Ġschw",
        "er"
      ],
      [
        "Ġhal",
        "ten"
      ],
      [
        "Ġ",
        "--"
      ],
      [
        "ĠL",
        "eiden"
      ],
      [
        "ĠSt",
        "u"
      ],
      [
        "ne",
        "ll"
      ],
      [
        "lie",
        "b"
      ],
      [
        "l",
        "ossen"
      ],
      [
        "Ġuns",
        "ern"
      ],
      [
        "Ġbes",
        "ser"
      ],
      [
        "ĠSte",
        "lle"
      ],
      [
        "fall",
        "s"
      ],
      [
        "ĠwuÃŁ",
        "te"
      ],
      [
        "p",
        "er"
      ],
      [
        "ie",
        "s"
      ],
      [
        "Ġn",
        "Ã¶t"
      ],
      [
        "Ġer",
        "k"
      ],
      [
        "Ġk",
        "einen"
      ],
      [
        "Ġher",
        "ein"
      ],
      [
        "ĠVer",
        "b"
      ],
      [
        "wÃ¼r",
        "dig"
      ],
      [
        "ĠKÃ¶n",
        "ig"
      ],
      [
        "f",
        "ten"
      ],
      [
        "Ġwirk",
        "lich"
      ],
      [
        "ÃŁ",
        "er"
      ],
      [
        "ĠW",
        "erk"
      ],
      [
        "ĠM",
        "orgen"
      ],
      [
        "Ġver",
        "z"
      ],
      [
        "ĠK",
        "ir"
      ],
      [
        "Ġwel",
        "cher"
      ],
      [
        "ĠVol",
        "k"
      ],
      [
        "ĠS",
        "inne"
      ],
      [
        "ĠI",
        "st"
      ],
      [
        "Ġgew",
        "iÃŁ"
      ],
      [
        "Ġbr",
        "ingen"
      ],
      [
        "Ġbem",
        "erk"
      ],
      [
        "ma",
        "ÃŁen"
      ],
      [
        "o",
        "ben"
      ],
      [
        "u",
        "chen"
      ],
      [
        "Ġ",
        "en"
      ],
      [
        "Ġb",
        "ist"
      ],
      [
        "ĠE",
        "ugen"
      ],
      [
        "ĠF",
        "rei"
      ],
      [
        "Ã¤n",
        "ger"
      ],
      [
        "Ã¤",
        "us"
      ],
      [
        "ĠN",
        "eigung"
      ],
      [
        "ĠGeb",
        "ir"
      ],
      [
        "ĠGed",
        "anken"
      ],
      [
        "un",
        "ft"
      ],
      [
        "sch",
        "e"
      ],
      [
        "Ġda",
        "her"
      ],
      [
        "Ġbes",
        "te"
      ],
      [
        "ĠAr",
        "b"
      ],
      [
        "ĠEugen",
        "ie"
      ],
      [
        "]",
        "."
      ],
      [
        "bar",
        "en"
      ],
      [
        "in",
        "z"
      ],
      [
        "Ġf",
        "ehl"
      ],
      [
        "ste",
        "ll"
      ],
      [
        "ĠDie",
        "s"
      ],
      [
        "Ġh",
        "e"
      ],
      [
        "Ġh",
        "eute"
      ],
      [
        "ĠP",
        "ap"
      ],
      [
        "ĠEin",
        "e"
      ],
      [
        "in",
        "k"
      ],
      [
        "Ġer",
        "war"
      ],
      [
        "ĠD",
        "es"
      ],
      [
        "ĠK",
        "ar"
      ],
      [
        "Ġda",
        "bei"
      ],
      [
        "ĠLie",
        "b"
      ],
      [
        "ĠFel",
        "sen"
      ],
      [
        "ĠfrÃ¼",
        "h"
      ],
      [
        "ĠZust",
        "and"
      ],
      [
        "i",
        "m"
      ],
      [
        "er",
        "ken"
      ],
      [
        "Ġg",
        "l"
      ],
      [
        "ĠD",
        "r"
      ],
      [
        "ck",
        "e"
      ],
      [
        "Ġent",
        "w"
      ],
      [
        "ĠGel",
        "egenheit"
      ],
      [
        "g",
        "te"
      ],
      [
        "ie",
        "ÃŁen"
      ],
      [
        "ĠG",
        "anz"
      ],
      [
        "ig",
        "te"
      ],
      [
        "ĠK",
        "na"
      ],
      [
        "ier",
        "e"
      ],
      [
        "ĠAu",
        "ge"
      ],
      [
        "Ġe",
        "w"
      ],
      [
        "ĠBeg",
        "riff"
      ],
      [
        "S",
        "ie"
      ],
      [
        "ei",
        "ls"
      ],
      [
        "Ã¼ck",
        "e"
      ],
      [
        "Ġversch",
        "ieden"
      ],
      [
        "Ġho",
        "ff"
      ],
      [
        "Ġ1",
        "7"
      ],
      [
        "Ġna",
        "hm"
      ],
      [
        "ĠSoph",
        "ie"
      ],
      [
        "ĠS",
        "ache"
      ],
      [
        "ĠK",
        "rei"
      ],
      [
        "ern",
        "e"
      ],
      [
        "Ġo",
        "ben"
      ],
      [
        "Ġst",
        "ar"
      ],
      [
        "Ã¼",
        "b"
      ],
      [
        "Ġviel",
        "e"
      ],
      [
        "Ã¼",
        "cht"
      ],
      [
        "Ġf",
        "ro"
      ],
      [
        "au",
        "ch"
      ],
      [
        "Ġnie",
        "mand"
      ],
      [
        "Ġfreund",
        "lich"
      ],
      [
        "ĠK",
        "n"
      ],
      [
        "ern",
        "en"
      ],
      [
        "eil",
        "en"
      ],
      [
        "ĠFr",
        "em"
      ],
      [
        "Ġgegen",
        "wÃ¤rt"
      ],
      [
        "d",
        "ige"
      ],
      [
        "w",
        "ie"
      ],
      [
        "ĠD",
        "ien"
      ],
      [
        "Ã¶",
        "pf"
      ],
      [
        "Ġman",
        "cher"
      ],
      [
        "ĠGegen",
        "wart"
      ],
      [
        "Ġangen",
        "ehm"
      ],
      [
        "Ã¶",
        "st"
      ],
      [
        "Ġin",
        "n"
      ],
      [
        "ĠE",
        "mpf"
      ],
      [
        "ĠT",
        "al"
      ],
      [
        "ĠN",
        "ur"
      ],
      [
        "ges",
        "te"
      ],
      [
        "ĠBetr",
        "acht"
      ],
      [
        "ĠmÃ¼s",
        "sen"
      ],
      [
        "o",
        "st"
      ],
      [
        "Ġd",
        "eu"
      ],
      [
        "ĠB",
        "ar"
      ],
      [
        "ĠH",
        "e"
      ],
      [
        "ĠN",
        "Ã¤"
      ],
      [
        "Ġher",
        "um"
      ],
      [
        "Ġr",
        "u"
      ],
      [
        "v",
        "oll"
      ],
      [
        "ig",
        "em"
      ],
      [
        "ĠL",
        "icht"
      ],
      [
        "ĠU",
        "r"
      ],
      [
        "Ġbe",
        "weg"
      ],
      [
        "isch",
        "er"
      ],
      [
        "Ġlie",
        "gt"
      ],
      [
        "br",
        "ingen"
      ],
      [
        "Ġbis",
        "her"
      ],
      [
        "ĠMe",
        "er"
      ],
      [
        "ausen",
        "d"
      ],
      [
        "f",
        "alt"
      ],
      [
        "m",
        "lich"
      ],
      [
        "ch",
        "sel"
      ],
      [
        "Ġs",
        "eit"
      ],
      [
        "Ġer",
        "halten"
      ],
      [
        "Ã¶",
        "l"
      ],
      [
        "ĠT",
        "h"
      ],
      [
        "ĠGes",
        "pr"
      ],
      [
        "ĠfrÃ¼",
        "her"
      ],
      [
        "a",
        "z"
      ],
      [
        "f",
        "r"
      ],
      [
        "m",
        "Ã¶"
      ],
      [
        "s",
        "al"
      ],
      [
        "ĠG",
        "i"
      ],
      [
        "ĠW",
        "o"
      ],
      [
        "sch",
        "af"
      ],
      [
        "ĠB",
        "u"
      ],
      [
        "re",
        "t"
      ],
      [
        "am",
        "il"
      ],
      [
        "ol",
        "d"
      ],
      [
        "ĠÃ¼br",
        "igen"
      ],
      [
        "ĠKÃ¼nst",
        "ler"
      ],
      [
        "Ġn",
        "at"
      ],
      [
        "Ġauf",
        "zu"
      ],
      [
        "ĠEr",
        "de"
      ],
      [
        "Ġtr",
        "at"
      ],
      [
        "ĠTas",
        "so"
      ],
      [
        "a",
        "fen"
      ],
      [
        "l",
        "ung"
      ],
      [
        "Ġh",
        "ie"
      ],
      [
        "ĠS",
        "Ã¶ll"
      ],
      [
        "et",
        "ter"
      ],
      [
        "zu",
        "g"
      ],
      [
        "Ġhin",
        "ein"
      ],
      [
        "Ġhin",
        "auf"
      ],
      [
        "ĠBe",
        "d"
      ],
      [
        "m",
        "eister"
      ],
      [
        "s",
        "s"
      ],
      [
        "Ġn",
        "eben"
      ],
      [
        "Ġk",
        "r"
      ],
      [
        "Ġhei",
        "ter"
      ],
      [
        "ĠhÃ¶r",
        "en"
      ],
      [
        "i",
        "v"
      ],
      [
        "Ġz",
        "erst"
      ],
      [
        "ĠM",
        "ir"
      ],
      [
        "ĠE",
        "hr"
      ],
      [
        "Ġsch",
        "nell"
      ],
      [
        "Ġhin",
        "aus"
      ],
      [
        "ĠHerz",
        "og"
      ],
      [
        "ĠPl",
        "atz"
      ],
      [
        "ĠMa",
        "j"
      ],
      [
        "ĠGest",
        "alt"
      ],
      [
        "ĠMÃ¤n",
        "ner"
      ],
      [
        "ĠvÃ¶ll",
        "ig"
      ],
      [
        "Ġn",
        "ehmen"
      ],
      [
        "ĠA",
        "ch"
      ],
      [
        "ur",
        "en"
      ],
      [
        "eil",
        "e"
      ],
      [
        "ĠÃ¼ber",
        "all"
      ],
      [
        "pr",
        "ochen"
      ],
      [
        "pp",
        "en"
      ],
      [
        "ĠW",
        "ar"
      ],
      [
        "ĠN",
        "ot"
      ],
      [
        "um",
        "en"
      ],
      [
        "Ġbes",
        "ten"
      ],
      [
        "Ġfr",
        "em"
      ],
      [
        "under",
        "t"
      ],
      [
        "kl",
        "Ã¤r"
      ],
      [
        "Ġkur",
        "z"
      ],
      [
        "ĠSÃ¶ll",
        "er"
      ],
      [
        "j",
        "en"
      ],
      [
        "Ġb",
        "en"
      ],
      [
        "Ġer",
        "inn"
      ],
      [
        "ĠE",
        "igen"
      ],
      [
        "ĠH",
        "in"
      ],
      [
        "ĠP",
        "h"
      ],
      [
        "ĠWe",
        "ge"
      ],
      [
        "ĠKo",
        "pf"
      ],
      [
        "t",
        "ag"
      ],
      [
        "Ã¼",
        "h"
      ],
      [
        "ĠD",
        "urch"
      ],
      [
        "Ġso",
        "llen"
      ],
      [
        "ĠBe",
        "weg"
      ],
      [
        "ĠGes",
        "icht"
      ],
      [
        "zie",
        "hen"
      ],
      [
        "frie",
        "den"
      ],
      [
        "a",
        "be"
      ],
      [
        "z",
        "lich"
      ],
      [
        "ch",
        "mal"
      ],
      [
        "un",
        "ge"
      ],
      [
        "Ġv",
        "ier"
      ],
      [
        "ĠW",
        "agen"
      ],
      [
        "Ġda",
        "durch"
      ],
      [
        "Ġkl",
        "eine"
      ],
      [
        "ĠfÃ¼hl",
        "te"
      ],
      [
        "ĠRei",
        "se"
      ],
      [
        "ĠAnt",
        "on"
      ],
      [
        "Ġnat",
        "Ã¼r"
      ],
      [
        ".",
        "]"
      ],
      [
        "o",
        "sen"
      ],
      [
        "el",
        "te"
      ],
      [
        "Ġf",
        "iel"
      ],
      [
        "au",
        "r"
      ],
      [
        "ĠĠĠĠ",
        "Ġ"
      ],
      [
        "Ġda",
        "zu"
      ],
      [
        "Ã¼n",
        "schen"
      ],
      [
        "bar",
        "e"
      ],
      [
        "kr",
        "aft"
      ],
      [
        "Ġl",
        "etzten"
      ],
      [
        "ĠZ",
        "wei"
      ],
      [
        "ĠSch",
        "ick"
      ],
      [
        "Ã¤n",
        "der"
      ],
      [
        "ĠWir",
        "k"
      ],
      [
        "ĠHÃ¶",
        "he"
      ],
      [
        "!",
        "--"
      ],
      [
        "h",
        "au"
      ],
      [
        "p",
        "l"
      ],
      [
        "er",
        "en"
      ],
      [
        "ich",
        "er"
      ],
      [
        "il",
        "de"
      ],
      [
        "ĠRe",
        "cht"
      ],
      [
        "Ġf",
        "reu"
      ],
      [
        "ĠF",
        "amil"
      ],
      [
        "ĠV",
        "ort"
      ],
      [
        "Ġals",
        "o"
      ],
      [
        "Ġo",
        "ffen"
      ],
      [
        "ĠO",
        "rt"
      ],
      [
        "Ġneu",
        "en"
      ],
      [
        "ĠHoff",
        "nung"
      ],
      [
        "?",
        "\""
      ],
      [
        "t",
        "es"
      ],
      [
        "z",
        "eit"
      ],
      [
        "Ġf",
        "ast"
      ],
      [
        "ĠF",
        "en"
      ],
      [
        "an",
        "gt"
      ],
      [
        "Ġh",
        "ielt"
      ],
      [
        "or",
        "e"
      ],
      [
        "stÃ¤n",
        "de"
      ],
      [
        "Ġblei",
        "ben"
      ],
      [
        "Ġ",
        "pr"
      ],
      [
        "Ġ",
        "eig"
      ],
      [
        "Ġm",
        "erk"
      ],
      [
        "ĠS",
        "eiten"
      ],
      [
        "Ġk",
        "ennen"
      ],
      [
        "Ġda",
        "hin"
      ],
      [
        "ĠSch",
        "on"
      ],
      [
        "Ġje",
        "dem"
      ],
      [
        "Ġse",
        "hn"
      ],
      [
        "Ġdar",
        "an"
      ],
      [
        "Ġs",
        "a"
      ],
      [
        "Ġver",
        "k"
      ],
      [
        "ind",
        "ung"
      ],
      [
        "Ġwen",
        "iger"
      ],
      [
        "ĠSon",
        "ne"
      ],
      [
        "E",
        "r"
      ],
      [
        "t",
        "o"
      ],
      [
        "Ã¤",
        "ter"
      ],
      [
        "Ã¤n",
        "gen"
      ],
      [
        "rei",
        "fen"
      ],
      [
        "ĠKr",
        "aft"
      ],
      [
        "schaf",
        "ten"
      ],
      [
        "i",
        "tel"
      ],
      [
        "Ġd",
        "Ã¼r"
      ],
      [
        "ĠS",
        "el"
      ],
      [
        "Ġein",
        "ander"
      ],
      [
        "Ġau",
        "ÃŁer"
      ],
      [
        "ĠW",
        "ert"
      ],
      [
        "Ã¶",
        "s"
      ],
      [
        "ĠI",
        "m"
      ],
      [
        "Ã¤n",
        "ge"
      ],
      [
        "il",
        "der"
      ],
      [
        "Ġab",
        "zu"
      ],
      [
        "ĠBr",
        "em"
      ],
      [
        "Ã¤ng",
        "st"
      ],
      [
        "Ã¼ÃŁ",
        "te"
      ],
      [
        "i",
        "a"
      ],
      [
        "Ġb",
        "lieb"
      ],
      [
        "ig",
        "sten"
      ],
      [
        "lich",
        "t"
      ],
      [
        "ĠD",
        "em"
      ],
      [
        "al",
        "ien"
      ],
      [
        "ĠF",
        "Ã¤"
      ],
      [
        "och",
        "ter"
      ],
      [
        "ĠĠĠĠĠĠĠĠ",
        "Ġ"
      ],
      [
        "Ġson",
        "der"
      ],
      [
        "Ġwenig",
        "stens"
      ],
      [
        "Ã¤um",
        "e"
      ],
      [
        "a",
        "ff"
      ],
      [
        "w",
        "ir"
      ],
      [
        "Ġs",
        "Ã¤"
      ],
      [
        "Ã¼",
        "re"
      ],
      [
        "Ġaus",
        "ge"
      ],
      [
        "ĠkÃ¶n",
        "ne"
      ],
      [
        "ĠBes",
        "itz"
      ],
      [
        "Ġblei",
        "bt"
      ],
      [
        "Ġfol",
        "gen"
      ],
      [
        "ĠPers",
        "onen"
      ],
      [
        "en",
        "det"
      ],
      [
        "et",
        "te"
      ],
      [
        "ann",
        "t"
      ],
      [
        "Ġbe",
        "quem"
      ],
      [
        "Ġvoll",
        "kommen"
      ],
      [
        "ĠBo",
        "den"
      ],
      [
        "l",
        "assen"
      ],
      [
        "Ã¼",
        "ÃŁen"
      ],
      [
        "lich",
        "sten"
      ],
      [
        "ach",
        "tet"
      ],
      [
        "Ġver",
        "h"
      ],
      [
        "Ġda",
        "gegen"
      ],
      [
        "ĠN",
        "amen"
      ],
      [
        "Ġbei",
        "de"
      ],
      [
        "Ġsoll",
        "ten"
      ],
      [
        "ĠGesch",
        "Ã¤ft"
      ],
      [
        "ĠJahr",
        "en"
      ],
      [
        "Ġwe",
        "der"
      ],
      [
        "ĠLu",
        "c"
      ],
      [
        "d",
        "re"
      ],
      [
        "Ġlie",
        "be"
      ],
      [
        "Ġkonn",
        "ten"
      ],
      [
        "ĠHerr",
        "n"
      ],
      [
        "ĠJahr",
        "e"
      ],
      [
        "ig",
        "ung"
      ],
      [
        "Ġer",
        "ste"
      ],
      [
        "ĠT",
        "isch"
      ],
      [
        "ĠSch",
        "mer"
      ],
      [
        "ĠSch",
        "iff"
      ],
      [
        "lie",
        "ÃŁ"
      ],
      [
        "ĠMaj",
        "or"
      ],
      [
        "k",
        "unft"
      ],
      [
        "r",
        "Ã¤n"
      ],
      [
        "Ġn",
        "Ã¤ch"
      ],
      [
        "ĠG",
        "ut"
      ],
      [
        "ĠSt",
        "unde"
      ],
      [
        "Ġhal",
        "b"
      ],
      [
        "Ġentsch",
        "ieden"
      ],
      [
        "ĠBrie",
        "f"
      ],
      [
        "s",
        "eit"
      ],
      [
        "z",
        "te"
      ],
      [
        "Ġer",
        "l"
      ],
      [
        "ĠH",
        "eil"
      ],
      [
        "Ġver",
        "n"
      ],
      [
        "ĠL",
        "ot"
      ],
      [
        "ing",
        "s"
      ],
      [
        "Ġdar",
        "Ã¼ber"
      ],
      [
        "ĠLu",
        "ft"
      ],
      [
        "h",
        "eiten"
      ],
      [
        "Ġw",
        "egen"
      ],
      [
        "Ġg",
        "eist"
      ],
      [
        "Ã¤",
        "glich"
      ],
      [
        "Ġz",
        "eig"
      ],
      [
        "Ġge",
        "geben"
      ],
      [
        "Ġver",
        "f"
      ],
      [
        "ĠR",
        "aum"
      ],
      [
        "Ġum",
        "her"
      ],
      [
        "Ġgeh",
        "Ã¶rt"
      ],
      [
        "ĠW",
        "ein"
      ],
      [
        "ĠW",
        "ider"
      ],
      [
        "Ġso",
        "dann"
      ],
      [
        "ĠF",
        "ol"
      ],
      [
        "Ġman",
        "chmal"
      ],
      [
        "tr",
        "agen"
      ],
      [
        "il",
        "det"
      ],
      [
        "ick",
        "t"
      ],
      [
        "ĠAuf",
        "merksam"
      ],
      [
        "Ġ17",
        "8"
      ],
      [
        "z",
        "immer"
      ],
      [
        "Ġ",
        "ro"
      ],
      [
        "ie",
        "ht"
      ],
      [
        "Ġge",
        "tan"
      ],
      [
        "ĠP",
        "ar"
      ],
      [
        "Ġbei",
        "m"
      ],
      [
        "Ġgen",
        "au"
      ],
      [
        "w",
        "and"
      ],
      [
        "Ġd",
        "eine"
      ],
      [
        "in",
        "ken"
      ],
      [
        "Ġz",
        "er"
      ],
      [
        "Ġz",
        "og"
      ],
      [
        "gen",
        "ommen"
      ],
      [
        "ĠG",
        "leich"
      ],
      [
        "Ġihr",
        "es"
      ],
      [
        "ĠAn",
        "l"
      ],
      [
        "ĠAn",
        "blick"
      ],
      [
        "--",
        "\""
      ],
      [
        "Ġges",
        "te"
      ],
      [
        "Ġfr",
        "agte"
      ],
      [
        "ĠBrem",
        "e"
      ],
      [
        "d",
        "el"
      ],
      [
        "ĠL",
        "age"
      ],
      [
        "ĠT",
        "ochter"
      ],
      [
        "Ġbe",
        "geg"
      ],
      [
        "Ġse",
        "he"
      ],
      [
        "Ġkam",
        "en"
      ],
      [
        "Ġspr",
        "ach"
      ],
      [
        "ĠWor",
        "te"
      ],
      [
        "m",
        "Ã¤ÃŁ"
      ],
      [
        "s",
        "etzen"
      ],
      [
        "w",
        "or"
      ],
      [
        "ĠW",
        "ohl"
      ],
      [
        "Ġf",
        "or"
      ],
      [
        "al",
        "k"
      ],
      [
        "ĠL",
        "ei"
      ],
      [
        "Ġlie",
        "gen"
      ],
      [
        "mit",
        "tel"
      ],
      [
        "Ġbem",
        "erken"
      ],
      [
        "ĠHaupt",
        "mann"
      ],
      [
        "fÃ¼hr",
        "en"
      ],
      [
        ")",
        "."
      ],
      [
        "Ġ",
        "pfl"
      ],
      [
        "Ã¤",
        "gt"
      ],
      [
        "ĠS",
        "or"
      ],
      [
        "Ġbe",
        "kannt"
      ],
      [
        "Ã¤n",
        "den"
      ],
      [
        "ĠVer",
        "tr"
      ],
      [
        "ĠJu",
        "gend"
      ],
      [
        "ch",
        "s"
      ],
      [
        "ĠS",
        "a"
      ],
      [
        "Ġein",
        "zu"
      ],
      [
        "Ġer",
        "blick"
      ],
      [
        "Ġher",
        "an"
      ],
      [
        "ĠFÃ¼r",
        "st"
      ],
      [
        "a",
        "hn"
      ],
      [
        "a",
        "bt"
      ],
      [
        "s",
        "inn"
      ],
      [
        "z",
        "eu"
      ],
      [
        "Ġj",
        "ungen"
      ],
      [
        "urch",
        "t"
      ],
      [
        "Ġwieder",
        "hol"
      ],
      [
        "Ġgen",
        "ieÃŁen"
      ],
      [
        "Ġho",
        "hen"
      ],
      [
        "en",
        "e"
      ],
      [
        "ei",
        "ben"
      ],
      [
        "Ġer",
        "r"
      ],
      [
        "ĠD",
        "aÃŁ"
      ],
      [
        "Ġge",
        "kommen"
      ],
      [
        "ĠAu",
        "ft"
      ],
      [
        "Ġviel",
        "en"
      ],
      [
        "aÃŁ",
        "e"
      ],
      [
        "Ã¶r",
        "en"
      ],
      [
        "Ġgr",
        "Ã¼n"
      ],
      [
        "Ġal",
        "te"
      ],
      [
        "ennt",
        "nis"
      ],
      [
        "ĠNe",
        "ap"
      ],
      [
        "ĠPfer",
        "de"
      ],
      [
        "l",
        "en"
      ],
      [
        "te",
        "ten"
      ],
      [
        "ĠF",
        "or"
      ],
      [
        "ill",
        "e"
      ],
      [
        "ĠMit",
        "tel"
      ],
      [
        "Ġunser",
        "er"
      ],
      [
        "ĠÃ",
        "Ħ"
      ],
      [
        "ĠCharlot",
        "ten"
      ],
      [
        "Ġfin",
        "det"
      ],
      [
        "Ġleb",
        "haft"
      ],
      [
        "ĠArb",
        "eit"
      ],
      [
        "t",
        "est"
      ],
      [
        "Ġd",
        "einen"
      ],
      [
        "in",
        "en"
      ],
      [
        "on",
        "s"
      ],
      [
        "Ġder",
        "gleichen"
      ],
      [
        "den",
        "k"
      ],
      [
        "eg",
        "te"
      ],
      [
        "Ġje",
        "de"
      ],
      [
        "rie",
        "ben"
      ],
      [
        "imm",
        "e"
      ],
      [
        "Ġgef",
        "unden"
      ],
      [
        "ĠSchick",
        "sal"
      ],
      [
        "ĠAufmerksam",
        "keit"
      ],
      [
        "i",
        "an"
      ],
      [
        "Ġm",
        "och"
      ],
      [
        "al",
        "e"
      ],
      [
        "ĠF",
        "est"
      ],
      [
        "Ġdes",
        "to"
      ],
      [
        "Ġkl",
        "ar"
      ],
      [
        "nÃ¼",
        "gen"
      ],
      [
        "ĠGespr",
        "Ã¤ch"
      ],
      [
        "w",
        "ohl"
      ],
      [
        "ur",
        "e"
      ],
      [
        "Ġman",
        "che"
      ],
      [
        "Ġt",
        "eil"
      ],
      [
        "Ġdurch",
        "aus"
      ],
      [
        "ĠgroÃŁ",
        "er"
      ],
      [
        "Ġsu",
        "chte"
      ],
      [
        "ie",
        "g"
      ],
      [
        "Ġh",
        "ol"
      ],
      [
        "ĠG",
        "ro"
      ],
      [
        "ĠW",
        "under"
      ],
      [
        "ĠBer",
        "g"
      ],
      [
        "ĠgrÃ¶ÃŁ",
        "ten"
      ],
      [
        "Ġentw",
        "ick"
      ],
      [
        "e",
        "lle"
      ],
      [
        "Ġs",
        "agt"
      ],
      [
        "Ġsch",
        "le"
      ],
      [
        "Ġj",
        "em"
      ],
      [
        "Ġmein",
        "es"
      ],
      [
        "Ġt",
        "ausend"
      ],
      [
        "ne",
        "hm"
      ],
      [
        "ĠUnter",
        "halt"
      ],
      [
        "Ġerf",
        "reu"
      ],
      [
        "Ġl",
        "ag"
      ],
      [
        "Ġan",
        "s"
      ],
      [
        "ĠL",
        "eute"
      ],
      [
        "ĠGe",
        "fahr"
      ],
      [
        "ĠUn",
        "glÃ¼ck"
      ],
      [
        "ĠBr",
        "ust"
      ],
      [
        "Ã¤um",
        "en"
      ],
      [
        "ĠPr",
        "inz"
      ],
      [
        "Ġern",
        "st"
      ],
      [
        "ĠBeweg",
        "ung"
      ],
      [
        "a",
        "lle"
      ],
      [
        "in",
        "de"
      ],
      [
        "Ã¤",
        "che"
      ],
      [
        "Ã¤",
        "llt"
      ],
      [
        "Ġein",
        "f"
      ],
      [
        "ig",
        "keiten"
      ],
      [
        "ĠZ",
        "we"
      ],
      [
        "Ġsel",
        "t"
      ],
      [
        "Ġwel",
        "chem"
      ],
      [
        "ĠGr",
        "und"
      ],
      [
        "ĠGeb",
        "Ã¤u"
      ],
      [
        "Ã¤hr",
        "t"
      ],
      [
        "Ġeinz",
        "el"
      ],
      [
        "ei",
        "tet"
      ],
      [
        "Ġh",
        "Ã¤lt"
      ],
      [
        "ĠS",
        "ein"
      ],
      [
        "Ġf",
        "ern"
      ],
      [
        "Ġf",
        "anden"
      ],
      [
        "ge",
        "t"
      ],
      [
        "Ġan",
        "t"
      ],
      [
        "ĠGe",
        "h"
      ],
      [
        "ungs",
        "kraft"
      ],
      [
        "ĠRu",
        "he"
      ],
      [
        "ĠAnton",
        "io"
      ],
      [
        "ĠNeap",
        "el"
      ],
      [
        "de",
        "ckt"
      ],
      [
        "Ġso",
        "gar"
      ],
      [
        "Ġnun",
        "mehr"
      ],
      [
        "Ġre",
        "chten"
      ],
      [
        "ĠMen",
        "ge"
      ],
      [
        "ĠGel",
        "d"
      ],
      [
        "geste",
        "llt"
      ],
      [
        "ĠW",
        "ahr"
      ],
      [
        "ĠH",
        "Ã¼gel"
      ],
      [
        "Ġbe",
        "k"
      ],
      [
        "Ġt",
        "reff"
      ],
      [
        "bl",
        "ieben"
      ],
      [
        "stÃ¤n",
        "dig"
      ],
      [
        "u",
        "er"
      ],
      [
        "ter",
        "s"
      ],
      [
        "ehr",
        "te"
      ],
      [
        "Ġander",
        "s"
      ],
      [
        "ĠNach",
        "bar"
      ],
      [
        "ĠAb",
        "sch"
      ],
      [
        "Ġruh",
        "ig"
      ],
      [
        "ĠGar",
        "ten"
      ],
      [
        "ĠBar",
        "on"
      ],
      [
        "Ġsa",
        "hen"
      ],
      [
        "w",
        "ind"
      ],
      [
        "Ã¤n",
        "en"
      ],
      [
        "ĠUn",
        "s"
      ],
      [
        "Ġst",
        "illen"
      ],
      [
        "Ġsol",
        "cher"
      ],
      [
        "Ġjen",
        "en"
      ],
      [
        "Ġunser",
        "m"
      ],
      [
        "ĠFen",
        "ster"
      ],
      [
        "i",
        "ent"
      ],
      [
        "z",
        "eug"
      ],
      [
        "st",
        "ern"
      ],
      [
        "el",
        "ten"
      ],
      [
        "ĠB",
        "em"
      ],
      [
        "ber",
        "t"
      ],
      [
        "Ġan",
        "f"
      ],
      [
        "Ġje",
        "des"
      ],
      [
        "ĠschÃ¶n",
        "sten"
      ],
      [
        "Ġbeg",
        "lei"
      ],
      [
        "k",
        "er"
      ],
      [
        "t",
        "alien"
      ],
      [
        "u",
        "der"
      ],
      [
        "es",
        "sen"
      ],
      [
        "ĠG",
        "ast"
      ],
      [
        "or",
        "n"
      ],
      [
        "Ġsch",
        "ick"
      ],
      [
        "ĠJ",
        "Ã¼n"
      ],
      [
        "Ã¤t",
        "igkeit"
      ],
      [
        "Ġsp",
        "rechen"
      ],
      [
        "Ġ178",
        "7"
      ],
      [
        "R",
        "I"
      ],
      [
        "i",
        "c"
      ],
      [
        "Ġh",
        "och"
      ],
      [
        "Ġein",
        "igen"
      ],
      [
        "ĠM",
        "ich"
      ],
      [
        "ĠF",
        "euer"
      ],
      [
        "re",
        "ck"
      ],
      [
        "Ġvor",
        "bei"
      ],
      [
        "Ġhin",
        "zu"
      ],
      [
        "Ġbr",
        "achte"
      ],
      [
        "d",
        "ung"
      ],
      [
        "g",
        "s"
      ],
      [
        "i",
        "f"
      ],
      [
        "Ġun",
        "g"
      ],
      [
        "Ġm",
        "ei"
      ],
      [
        "Ġer",
        "re"
      ],
      [
        "Ġl",
        "eiden"
      ],
      [
        "Ġwar",
        "um"
      ],
      [
        "and",
        "eln"
      ],
      [
        "ĠR",
        "eg"
      ],
      [
        "ĠAn",
        "st"
      ],
      [
        "Ã¤t",
        "zen"
      ],
      [
        "Ġmehr",
        "ere"
      ],
      [
        "sp",
        "iel"
      ],
      [
        "ĠKir",
        "che"
      ],
      [
        "b",
        "ald"
      ],
      [
        "ie",
        "gen"
      ],
      [
        "ie",
        "sen"
      ],
      [
        "on",
        "nen"
      ],
      [
        "ĠF",
        "ar"
      ],
      [
        "ĠGe",
        "heim"
      ],
      [
        "ĠVer",
        "s"
      ],
      [
        "ĠVer",
        "z"
      ],
      [
        "Ġnie",
        "mals"
      ],
      [
        "ĠKap",
        "itel"
      ],
      [
        "Ġun",
        "ver"
      ],
      [
        "icht",
        "er"
      ],
      [
        "Ġver",
        "ste"
      ],
      [
        "ĠK",
        "Ã¤"
      ],
      [
        "Ġsch",
        "m"
      ],
      [
        "Ġvor",
        "aus"
      ],
      [
        "rei",
        "ten"
      ],
      [
        "ĠEr",
        "st"
      ],
      [
        "Ġwe",
        "chsel"
      ],
      [
        "Ġselt",
        "sam"
      ],
      [
        "v",
        "iel"
      ],
      [
        "ll",
        "te"
      ],
      [
        "ir",
        "r"
      ],
      [
        "ĠD",
        "ann"
      ],
      [
        "ach",
        "sen"
      ],
      [
        "Ġk",
        "enn"
      ],
      [
        "de",
        "ck"
      ],
      [
        "ĠBe",
        "h"
      ],
      [
        "Ġglau",
        "bte"
      ],
      [
        "ess",
        "in"
      ],
      [
        "ĠHof",
        "meister"
      ],
      [
[...]
